9
10
5
-16
-46
-41
-42
-8
1
3
1
43
59
74
70
73
60
36
27
-23
-27
-6
-16
-10
19
9
-4
-5
-5
3
6
-9
-47
-65
-42
-17
-8
-12
-5
15
33
17
1
-14
11
-6
-7
9
-18
-2
18
10
43
13
-6
10
1
-6
17
10
-30
-52
-55
-38
-46
-30
-27
-20
-15
-31
-60
-31
-14
-7
3
33
8
-3
27
45
46
7
-8
-1
-11
4
17
19
-15
-28
-21
-12
6
-44
-55
-78
-85
-78
-50
-40
-8
12
19
20
-10
18
14
22
1
5
-8
-6
0
-3
4
24
24
-8
5
-6
-13
-22
-42
-60
-71
-28
-16
-30
-2
15
-7
15
-13
1
9
26
5
-14
-10
-6
4
-6
12
45
17
5
8
8
5
4
18
7
8
15
-2
-16
-19
-23
-13
-7
8
17
-2
13
2
-5
4
3
-3
2
14
27
8
6
21
28
31
49
63
71
44
48
31
-3
22
-1
2
-21
-1
6
23
21
-16
-15
6
-8
-13
-8
-22
-19
-20
13
4
-10
-21
-25
-22
-42
-30
-5
13
14
54
36
36
15
5
-38
-60
-68
-22
-28
-24
-16
-17
-5
-12
-27
-9
40
34
-8
-22
-20
-2
-32
-20
4
-7
4
2
10
-10
-27
-41
-53
-46
-57
-17
-18
-10
-18
-9
-19
-25
-14
11
49
49
25
-21
-10
1
1
1
3
-16
-4
-23
-21
-34
-59
-65
-38
-29
-34
-2
-5
-22
-19
-19
-19
-28
-14
13
39
23
27
37
13
7
-11
-3
6
7
7
-18
-9
-38
-51
-51
-38
-20
-13
-12
3
-20
-10
-7
-6
-22
-27
-7
18
-10
28
60
39
6
-29
-31
20
29
10
2
7
-51
-18
-39
-28
-6
11
-22
-2
-22
-12
-24
-14
-16
-7
-4
29
-10
16
35
-6
-17
-43
-32
-6
4
18
12
-8
-28
-23
-36
-29
6
-4
-19
-8
-9
-19
-5
-25
-5
13
13
38
-13
1
-14
-15
-41
-38
-40
-19
-5
-30
-21
-23
-49
-27
-32
-35
-15
24
26
-5
-12
-19
5
8
16
-6
6
-27
-50
-54
-68
-55
-27
23
34
29
48
46
50
25
25
-7
-25
-16
-2
28
25
50
29
7
6
2
6
1
-2
-3
-13
-21
-16
-6
-8
17
22
6
20
11
-5
7
14
20
14
15
-8
12
65
64
29
10
16
17
2
1
-10
-22
4
12
7
4
11
36
3
10
14
-8
-21
10
20
14
7
23
5
21
61
56
26
1
21
4
12
14
-13
-18
-4
10
-5
5
36
24
28
26
30
-18
-33
-7
-5
0
-4
27
24
16
65
58
20
9
16
12
-2
11
-5
-42
-38
-21
-35
9
4
3
33
31
24
1
-10
-8
-14
5
0
-19
-7
12
25
47
14
6
19
14
2
14
1
-20
-31
-30
-37
-12
5
42
41
36
24
12
1
-10
-28
2
3
-18
-25
-22
-26
2
13
21
11
24
6
13
8
-18
-48
-27
-40
-30
-8
12
21
-26
12
23
11
-18
-8
17
18
-8
-23
-35
-52
-6
-3
8
-26
-25
-15
-25
-30
-52
-15
-27
-29
-11
-1
-1
0
-4
-1
33
43
34
56
27
27
32
23
24
19
-11
-25
-26
-30
-28
-14
-29
-30
-37
2
-5
14
15
11
-13
-25
-12
-21
13
6
2
17
6
5
25
15
26
27
-11
-13
-22
-13
-12
-1
-10
-45
-51
5
-7
8
17
-1
-10
2
16
-19
-13
-21
-17
-13
29
37
33
16
31
-5
-22
-36
-19
-30
-22
-16
-4
-37
-35
-14
4
-16
-17
0
-8
2
6
-1
-54
-60
-15
18
53
46
20
9
26
-17
-35
-25
-11
-20
-20
-22
-5
-42
-29
-5
5
5
-13
-19
-13
-5
7
-6
-57
-85
-6
24
56
31
21
29
32
-18
-24
-20
-12
-19
-15
-18
-24
-21
-8
-7
-10
-15
-15
18
-9
5
-1
-18
-35
-15
38
30
39
5
17
8
35
30
-20
-10
-18
-25
-13
-23
-16
-7
-14
-31
-26
8
-22
-14
-29
-48
-44
3
21
34
37
48
28
28
21
41
16
12
0
-21
-26
-31
-27
-31
-20
-37
1
9
3
17
28
28
26
40
8
-15
-41
-40
-23
-2
-23
-15
15
12
-12
-10
-5
-28
-35
-41
-28
-35
-18
21
31
17
27
30
25
26
35
36
4
-20
-40
-10
-10
-6
18
11
30
-5
-13
12
12
-24
-46
-39
-24
-18
-10
11
24
33
29
17
6
-1
35
24
-23
-2
-25
-28
-12
-10
14
35
35
3
-1
19
36
-26
-32
-29
-45
-25
15
45
35
55
32
20
-4
-11
-4
-5
-11
11
10
-17
-9
11
11
14
15
-14
-9
17
3
-18
-35
-26
-42
-31
13
26
22
31
11
7
-6
-21
-5
19
27
25
10
10
-25
7
7
0
-14
-27
3
20
2
-23
-27
-28
-33
-31
-16
7
21
1
-6
-22
-11
0
2
7
25
30
21
1
14
-6
-15
-26
-2
1
17
-10
-20
-32
-33
-29
-30
-24
-1
17
49
28
39
28
30
23
21
35
20
1
23
21
30
1
-3
3
16
6
15
-3
-22
-30
-27
-27
-33
-17
10
4
20
11
23
38
18
35
5
8
14
13
-4
-8
13
7
8
17
-5
-22
-5
14
5
-20
-16
-36
-36
-31
-10
13
30
19
17
4
-8
-20
-32
-20
-16
-46
-11
-37
-24
-27
-26
2
-10
0
11
16
-9
-27
-36
-17
-27
-17
-13
2
13
-10
-8
-8
-33
-25
-35
-39
-50
-49
-46
-43
-41
-45
-29
-7
-15
11
14
6
11
-26
-25
-21
-32
-32
-31
10
-13
-25
-15
-6
-23
-6
-12
-19
-21
-8
-18
-24
-7
-9
-2
3
-13
-5
8
33
17
-13
-22
-30
-31
-30
-33
-12
18
6
4
29
29
2
-1
10
28
43
44
37
50
33
45
12
5
-20
-37
15
-5
-25
-36
-20
-24
-30
-37
-27
17
33
20
39
15
23
19
12
34
53
35
16
35
43
26
6
-11
-34
-44
-11
-23
-17
-24
-28
-18
-38
-47
-41
-10
12
33
34
27
28
17
26
23
5
-9
-7
5
-7
-1
-24
-15
-16
-20
-19
-27
-30
-21
-30
-27
-24
-2
2
-19
3
-10
-26
-25
-33
-68
-68
-47
-48
8
3
-9
-31
-29
-30
1
-7
3
13
-6
-31
-27
-28
-24
-30
-8
5
-1
-8
-8
-30
-47
-38
-35
-48
-26
-21
-13
-37
-41
-39
-24
-18
9
4
5
4
6
-27
-23
-28
-33
-13
-12
2
12
-17
-2
3
-8
8
4
-5
-3
0
-11
-16
-17
-22
5
16
5
7
2
-10
-16
-8
-29
-24
-31
-31
-12
-3
14
7
11
31
30
57
49
44
43
13
-17
-11
7
15
22
9
-3
17
-7
-25
-49
-19
-32
-31
-17
-27
-3
-14
19
28
23
49
55
66
45
38
45
43
45
39
5
20
37
22
11
-16
-46
-42
-43
-25
-35
-23
-28
-17
-4
-11
14
24
18
27
17
-2
25
22
41
35
42
13
-14
-12
22
23
-8
-13
-32
-4
-18
-22
-33
-16
-32
-21
-20
-36
-37
11
26
28
22
15
2
19
44
54
69
47
13
-6
9
24
-26
-22
-24
-16
-10
-15
-30
-4
16
16
14
17
-24
9
1
8
21
-2
2
31
43
35
33
19
-3
5
-1
12
16
-3
-1
-7
-22
5
9
0
15
-1
12
32
-6
-6
5
10
-5
6
-11
-2
18
36
20
35
-3
-1
15
-20
-7
2
-22
-12
-21
10
-1
9
14
-6
25
11
-3
15
7
-23
-1
16
-6
4
18
45
16
12
-14
-19
-12
-16
-26
5
-2
-29
4
18
12
-1
13
-1
-2
-9
-8
7
15
6
2
1
-11
-15
11
32
15
6
5
16
9
6
-11
9
-1
-40
-8
8
0
12
3
2
11
10
0
-2
23
37
30
14
-1
-5
23
31
6
22
35
41
30
49
35
45
18
3
13
17
6
1
11
0
-15
31
19
13
12
2
6
11
-12
-31
-2
23
34
22
22
37
23
3
28
41
50
16
4
10
0
3
-5
13
-5
28
-26
-17
3
-15
-2
-12
-9
-30
20
47
37
50
22
33
8
20
11
-26
-8
-21
0
-12
-3
-30
-29
-5
22
39
41
23
-4
1
-28
-32
-71
-58
-57
-58
-31
-12
-4
14
17
7
19
5
-1
1
-1
-37
-28
-25
-35
-15
-18
15
11
6
6
8
-21
-33
-32
-39
-62
-57
-19
-28
-1
8
30
18
-14
-10
3
13
10
-25
-27
-22
-32
-23
-36
-2
11
8
3
2
-12
2
-7
-25
-30
-23
-5
-18
7
6
24
27
-15
2
-19
8
-4
-36
-30
-16
-36
-24
-46
-34
-9
-2
13
27
33
25
18
33
14
-1
9
13
26
21
14
19
-5
4
-31
-11
-7
-7
-19
-23
-21
-35
-47
-46
-1
22
12
24
26
42
23
41
12
19
22
11
10
27
28
33
-11
-31
-39
-39
-1
-19
-35
-20
-20
-19
-1
-23
20
25
9
-1
-6
-2
8
9
5
-3
15
2
28
23
56
24
-9
-52
-49
-41
-31
-23
-27
-28
-31
-39
-35
-21
-4
-19
-13
-7
-24
-2
-1
13
10
12
10
17
20
13
24
0
-40
-56
-43
-21
-19
-20
-19
-20
-15
-8
6
40
29
6
-2
10
17
18
38
5
-25
-60
-76
-33
11
-19
-13
-35
-21
12
33
58
41
5
-10
-9
-5
-18
-4
55
30
-2
6
-9
4
14
30
13
-18
-54
-19
6
-7
-16
-4
-7
4
25
27
48
58
12
-8
-22
-18
-15
-11
11
8
17
26
4
-15
-6
25
34
-14
-61
-28
8
-18
-1
6
6
23
44
53
75
63
20
-7
-15
-8
-26
-22
-2
9
14
37
12
25
27
43
50
-6
-46
-7
-23
-10
-13
8
-10
-17
8
15
26
47
4
-7
-11
-9
-24
-13
-11
-22
-3
0
12
26
29
58
25
-34
-16
3
-19
-46
-30
-19
-24
-20
-7
3
-8
-9
-22
-8
-16
-19
-14
-30
-67
-43
-19
5
-20
-4
24
29
24
16
-13
6
-30
-33
-22
0
-14
-14
-7
-10
3
0
-21
-26
-12
-25
-28
-26
-39
-34
15
-5
6
33
37
23
28
25
38
52
38
18
18
2
-13
-9
2
5
-8
-3
-28
-17
-12
-6
-14
11
-8
10
-1
8
-1
-12
-20
-18
-38
-7
-20
4
-21
-16
3
8
-12
-2
-3
16
15
-17
-25
-10
-18
-15
-13
1
-5
14
7
-4
-28
-15
-22
-4
-8
3
9
6
-40
-30
-8
5
10
6
30
14
-3
4
-15
-21
0
-4
-11
-14
-17
3
-16
-14
-9
5
-17
-9
-12
12
-5
-2
-6
-9
-32
-13
-7
10
33
34
-10
-29
-27
-2
-19
-1
-5
-5
-8
-9
-26
-6
-23
-18
12
18
4
3
11
0
0
11
-11
-8
-15
10
48
20
-6
-45
-16
-10
-18
-18
-7
7
-4
-32
-30
-25
-11
5
17
6
16
1
21
25
19
17
-6
-10
-9
2
20
7
-12
-23
-20
-7
-10
-7
-7
-10
-5
-29
-44
-39
-11
17
24
21
34
-3
23
20
30
33
-9
5
1
-14
18
40
46
-21
-31
-20
-12
-12
2
-25
-24
-30
-44
-26
-16
-7
-3
-8
6
12
-11
3
0
9
7
-6
11
4
37
40
28
-8
-2
-13
-7
-8
-9
-7
-4
24
9
6
3
4
-7
-4
-40
-63
-43
-50
-22
6
4
8
13
-5
39
59
30
-6
4
-21
-14
-26
-27
-6
-15
16
-6
-14
-23
-12
-7
2
-10
-40
-53
-36
-6
18
22
10
10
19
47
36
19
-12
-11
-18
-6
-18
-18
-23
-11
-8
17
-6
11
5
9
17
-2
-63
-41
-6
37
37
25
22
21
40
41
31
-1
-6
-18
-16
-4
-16
-22
-15
3
-5
-10
-16
-7
-2
12
-2
-43
-67
-10
39
42
38
36
16
4
33
27
-8
8
20
2
-9
-1
-20
-14
-42
1
-1
1
-21
0
5
-3
-27
-82
-51
4
31
40
32
37
8
13
26
1
-27
29
4
-6
-19
-21
-19
-13
-27
-6
2
2
29
30
10
3
-20
-42
-44
9
25
34
26
25
-3
22
14
-6
-25
-6
10
-4
-19
-22
-9
-3
-17
13
41
34
28
2
-14
-25
-51
-31
-30
-28
4
18
23
20
21
10
27
9
-19
-20
3
-2
-15
-8
-7
19
40
18
21
9
11
28
25
39
32
44
16
15
1
-25
-9
7
-8
-17
-24
-9
43
43
-8
1
-5
9
-8
9
26
27
19
-6
-23
-13
2
22
10
-16
-15
-47
-32
-33
-18
3
-1
-26
-24
-10
24
24
-3
-3
8
1
-4
-5
13
-25
-30
-38
-31
-34
-19
-13
-22
-41
-48
-29
-30
-41
-33
-16
-19
-22
-22
-25
13
11
-8
-21
-2
9
6
0
-9
-43
-76
-67
-71
-69
-58
-74
-50
-66
-92
-62
-55
-42
0
9
-23
-30
-23
-22
3
0
0
6
-1
1
-5
8
-22
-50
-33
-34
-57
-70
-68
-72
-46
-49
-59
-74
-60
-22
19
4
-24
-22
-12
7
8
-13
3
-9
10
11
-4
-4
5
-27
-3
3
8
-13
-11
-2
9
3
-14
-35
-22
15
20
-9
17
23
5
-10
8
5
-1
5
-6
-5
-4
-8
7
-26
-26
-19
-1
8
-35
-42
-42
-62
-34
-37
-23
35
36
28
25
18
8
-8
21
-5
-1
9
-4
-20
-18
-16
-11
-4
-25
6
12
-8
-2
-12
6
-18
10
25
24
12
10
3
-24
-36
-19
-14
-10
1
16
-5
-9
-17
-14
-1
3
-10
-25
-14
18
20
32
16
18
19
26
17
-13
-26
-37
-31
-36
-34
-7
-19
-19
5
18
-1
-22
-19
-10
-19
1
-6
-11
-8
-5
2
-9
1
26
-10
-12
-11
-45
-44
-47
-23
-30
-3
12
1
-11
-15
-2
-21
-5
-27
-17
-25
-12
-14
-15
3
-7
-11
-10
-4
-30
-11
-12
-26
-29
-8
-19
-20
-28
-6
-1
-12
-29
-31
-7
-8
-9
-6
-8
-20
-39
-49
-34
-12
14
12
12
15
-14
13
-16
-5
6
-2
4
-14
-15
11
-2
-3
-10
-36
-9
-20
-22
-19
-20
-28
-35
-41
-47
-17
4
-17
2
27
3
16
36
8
19
25
0
-6
-2
9
34
28
21
-12
-9
-28
-25
-8
-24
-18
-39
-22
-12
4
13
17
22
31
14
27
31
54
57
46
44
34
1
18
43
39
16
-5
-5
-20
-15
-28
-22
-5
-4
-35
13
15
-1
1
-3
20
17
1
-7
11
22
24
38
34
12
-2
17
16
-13
-18
-18
-31
-16
-20
-4
-3
-10
-38
13
6
-11
10
-17
-5
19
-3
13
22
24
19
39
30
38
50
27
30
6
-5
-6
-25
-22
-18
-8
-17
-25
-32
1
6
-4
8
12
26
30
15
6
27
15
18
25
45
51
46
10
25
15
-11
-3
-30
-15
-16
-12
-2
-28
-38
-2
-12
4
26
39
30
11
25
8
4
-18
-1
4
19
17
24
9
0
-5
-23
-1
-13
-16
-27
-11
2
-34
-24
-13
5
0
25
15
21
18
5
-16
-30
-30
-17
-3
8
3
-5
23
-3
-29
-38
-11
2
-14
-16
-22
-11
-14
9
22
-21
-12
-4
36
34
25
-17
-37
-20
-34
-26
0
0
16
19
21
6
-29
-51
-18
4
-7
-19
-6
-4
-10
8
-24
-52
1
-14
7
24
35
13
-10
-4
-19
-36
-31
-14
8
14
12
8
-6
-27
-25
-3
-9
-12
-9
11
13
45
14
5
-8
-3
11
16
16
15
35
43
58
25
-8
-2
-3
0
13
3
-17
-17
-15
-23
-16
-16
-9
2
5
13
-5
-5
5
-1
12
26
34
32
32
18
-5
-21
-24
-15
-2
-15
4
7
-4
0
-19
-14
-3
3
-12
-16
-17
6
19
12
12
17
5
35
39
11
-3
-27
-47
-33
-42
-33
-25
-4
-17
-11
-10
-32
-6
-17
-8
-11
-15
-12
-27
-18
4
15
18
14
0
18
-5
-1
-42
-52
-32
-30
-7
14
4
2
-8
-9
-30
-19
-12
-13
-15
2
1
-6
-43
-44
-25
-4
-7
-28
-20
6
-8
-39
-42
-36
-9
-4
3
0
17
2
9
-15
-26
1
18
7
-6
-9
-14
2
-23
-47
-47
-36
-42
-50
-38
-41
-10
-3
-13
-11
5
-14
-2
-11
4
-13
-7
-32
-36
11
-1
9
-9
-15
0
-14
-31
-69
-60
-53
-32
-33
-41
-16
3
24
12
18
19
23
-12
-9
-21
-10
-47
-37
-7
13
17
19
3
8
7
3
10
3
18
1
-6
9
32
44
29
53
61
46
33
33
51
54
52
64
37
32
42
35
29
6
4
-4
-2
12
18
-17
-2
4
-17
8
1
3
28
9
42
41
51
27
54
40
56
53
35
35
40
6
-13
14
9
2
14
12
-2
3
-15
-29
-42
-2
8
-5
-12
27
32
19
27
17
10
28
29
12
14
19
14
-10
-8
-13
9
18
10
20
5
-15
-16
-32
-46
-46
-25
-31
-18
-16
-15
-18
-22
-39
-56
-36
-53
-53
-13
-8
-18
-15
11
1
8
15
13
2
10
-20
-14
-4
-43
-57
-50
-36
-46
-60
-41
-48
-42
-34
-51
-77
-66
-63
-34
-44
-19
-37
-4
1
18
-2
15
5
10
-6
-12
2
-21
-29
-13
4
23
-19
-25
-33
-9
-11
-18
-8
-16
4
8
-38
-41
-39
-6
9
0
6
7
5
7
-11
-15
-18
-20
-5
-7
-21
-26
-29
-15
28
14
22
3
-2
5
17
11
8
-14
-23
-10
-1
7
4
5
23
44
47
39
7
-10
-13
6
-4
-15
6
27
32
35
38
43
10
22
15
8
4
19
-9
-8
-8
20
4
22
15
4
11
14
22
6
11
16
33
29
17
30
24
9
16
3
7
9
20
21
47
18
-8
6
-7
5
11
14
16
-17
-3
11
29
24
26
22
35
11
19
7
-8
-8
-4
-10
7
-3
0
15
27
12
2
1
-3
4
9
7
17
-12
-12
-13
-12
-3
-19
6
-22
-25
-28
-30
-8
-30
-32
-34
-1
12
-6
-1
7
3
-5
-10
-3
10
4
9
5
2
-27
-26
-15
-27
-32
-35
-43
-41
-34
-19
-8
-13
-22
1
-2
46
27
22
3
-37
-35
16
28
2
7
16
7
-5
-18
-39
-31
-41
-43
-37
-25
-10
-9
8
20
18
2
10
13
50
37
0
-32
-15
-19
-5
8
6
6
21
16
7
-26
-48
-27
-18
-24
-16
-28
-19
-11
4
41
16
16
21
37
14
12
-31
-36
-37
-4
22
19
11
-19
-22
-4
12
12
2
37
9
-29
-4
10
17
38
42
20
17
11
18
27
42
34
40
34
41
33
-12
-29
-17
-15
-17
-16
7
3
4
35
18
29
4
14
15
9
3
5
-6
-11
-8
-12
0
10
16
41
53
43
-5
-13
-12
-11
-5
-16
-6
-27
-10
0
-2
16
4
1
-9
-4
2
-16
-4
3
-4
-2
4
27
16
35
63
36
-21
-36
-23
-8
-13
-12
-12
-7
-32
-22
-17
-19
-20
-21
-15
0
-17
-18
-9
-20
-14
-27
20
31
20
48
63
53
-26
-19
-9
-14
-20
-20
-13
-5
-11
-13
-8
-44
-40
-28
-35
-8
-17
-13
-24
-50
-103
-63
8
25
18
38
58
33
-9
-10
-22
-6
-8
-11
-1
9
-13
-4
-23
-10
-12
-2
1
25
5
17
-33
-84
-84
-17
30
46
41
33
16
48
-10
-31
-15
-17
-24
-27
-4
-8
-26
-12
-7
24
10
-1
-7
-7
-19
-18
-45
-60
-32
62
100
122
88
52
13
8
0
-10
-23
-6
-15
5
17
22
27
42
12
33
47
24
1
20
31
-5
-3
-12
-20
-44
-54
-52
-47
-60
-22
21
1
-4
-3
-16
-16
13
20
40
45
39
24
16
11
23
-2
4
24
17
-1
7
-16
-5
-18
-23
-34
-27
-29
-7
-9
6
-11
-11
0
17
42
23
46
53
32
9
1
14
12
27
31
5
3
-34
5
8
-3
-1
-23
-30
-27
-30
-25
14
-2
-19
-12
6
27
22
56
64
24
14
25
11
22
26
23
25
8
7
8
19
6
-14
-31
-32
-40
-60
-37
0
-2
-3
-8
3
39
33
47
32
14
4
18
16
26
20
42
21
43
35
36
37
-4
2
-40
-30
-67
-65
-30
-17
0
-13
-7
6
24
43
37
3
-6
-10
9
-34
-12
-10
20
22
34
24
34
25
-1
-19
-47
-57
-44
-47
-22
-6
-15
-7
-16
-10
9
16
-19
-20
4
0
-11
-24
-8
-15
10
1
11
-8
0
-9
-51
-64
-60
-44
-62
-39
-1
-4
3
-34
-28
-33
-13
-23
-4
-31
-21
-24
-35
-34
-29
-38
-51
-57
-70
-39
-44
-57
-29
-54
-32
-40
-15
-7
-20
-31
-25
-21
-31
-26
-25
-32
-32
-31
-28
-41
-29
-17
-37
-36
-42
-28
-27
-40
-38
-34
-15
-18
-22
-32
-9
10
-25
-22
-27
-16
-19
-22
-28
-40
-30
-37
-17
-42
-28
-29
-35
-11
-22
-3
0
-5
5
8
0
-11
-7
-10
-22
-12
-35
-24
-24
-34
-16
-19
-39
-18
-33
-44
-24
-20
-22
-20
-18
-27
-53
-34
-11
2
4
8
34
44
58
34
15
15
-8
-5
-29
-15
-28
-17
-16
-24
-42
-52
-23
-16
10
5
21
-10
-31
-41
-32
-8
9
-7
26
68
65
61
34
30
18
-28
-14
-24
-19
-27
-23
-42
-40
-50
-19
-11
-2
0
-29
-17
-32
-18
-10
-10
2
-24
-21
11
26
18
15
-3
-15
-17
-14
-24
-28
-23
-27
-40
-54
-56
-41
-50
-22
-14
-34
-34
-48
-52
-60
-49
-57
-36
-25
-22
-17
-20
-1
-7
-9
-17
-29
-20
-8
-3
-7
-8
-25
-57
-56
-30
-22
-24
-18
3
5
11
-4
-19
-23
-9
-31
-26
-17
-20
-8
-20
-34
-25
-7
-23
-15
1
-15
-20
2
-39
-43
-34
-1
-2
3
-3
-11
6
-13
3
15
18
-1
15
8
-16
-1
-20
-42
-41
-13
-24
-2
-13
-15
-11
16
-17
-41
-34
-15
9
26
5
-16
-18
-9
31
37
35
16
-23
-35
-31
-60
-29
-45
-39
-10
-21
-24
-4
5
-8
-1
-8
-35
-51
-17
-7
-1
-2
-15
-8
38
40
44
8
18
-6
-32
-64
-65
-46
-41
-12
-24
-25
-18
-16
19
-10
-16
-33
-46
-34
-37
-14
9
14
-22
11
53
27
28
31
22
-15
-15
-59
-54
-47
-21
-23
-14
-11
-8
-4
15
0
-1
-24
-23
-16
-9
16
10
16
-20
10
20
7
17
33
24
-9
-26
-24
-27
2
1
-16
-25
-12
-11
-24
-9
-4
2
-9
7
-6
-13
-8
-15
-2
1
3
-14
-5
7
5
10
-2
-4
8
24
20
13
-2
-14
-50
-37
-49
-47
-50
9
15
37
25
27
36
26
16
-2
-26
-16
-34
-24
21
1
4
17
27
23
20
2
-20
-43
-53
-49
-49
-22
4
44
21
7
3
-4
-3
-14
-4
-6
-10
-37
-21
-29
9
1
7
29
-10
13
59
33
-23
-47
-48
-40
-44
9
33
39
29
18
-20
4
5
6
-4
-6
-15
-9
-18
12
5
9
2
-5
12
23
38
33
-2
-35
-50
-41
-21
15
43
25
7
0
-1
0
7
9
12
-20
-29
-18
3
13
-20
-14
-23
-11
0
11
5
28
-14
-47
-56
-46
-38
14
44
26
25
10
2
3
13
15
-3
-17
3
6
10
5
-11
-29
-41
-21
4
14
22
29
-20
-37
-42
-53
-36
-10
24
21
4
0
3
8
2
23
13
6
5
12
15
0
-23
-37
-39
-9
12
20
-20
-18
-40
-36
-50
-35
-32
9
30
40
-8
35
2
16
15
28
36
36
16
19
-6
-9
-22
-17
-21
-10
4
-5
-16
-27
-48
-54
-36
-46
-23
-16
7
22
32
51
36
6
-28
-49
-48
-27
4
-7
-27
-60
-58
-27
-24
3
-3
10
18
-21
-24
-33
-37
-38
-26
-7
14
51
18
23
-6
-28
-52
-47
-18
-8
15
6
-12
-14
-23
-13
9
-1
-16
3
5
-38
-50
-28
-36
-41
-30
-27
18
44
22
6
-2
-14
-44
-34
-24
-41
-24
-25
-12
-20
-4
-5
14
4
9
-15
-3
-40
-33
-31
-46
-30
-37
-24
26
21
6
33
27
8
-2
-5
-12
-28
-50
-27
-32
-13
-1
7
5
-1
20
-8
-6
-39
-31
-42
-42
-46
-30
-10
-6
5
30
36
45
28
41
7
-17
-45
-39
-24
-6
-17
-1
11
19
29
43
-3
11
-33
-32
-33
-35
-35
-35
10
-20
0
18
26
23
13
17
26
-4
-34
-37
-16
13
12
-9
-10
16
17
29
29
32
-39
-45
-30
-27
-34
-45
-22
-24
31
32
21
25
45
31
31
11
-5
-29
6
33
24
34
16
1
7
38
43
9
-23
-52
-28
-26
-9
-13
-10
-7
-6
-18
-60
-27
-6
10
24
-5
-39
-56
-15
4
-12
-27
-53
-53
-41
-28
-27
-22
-25
-13
-10
-30
-18
-23
-15
2
-15
-15
-2
21
36
23
9
-39
-78
-33
-17
-16
-5
0
-13
-7
11
-15
-23
-7
-10
-21
-32
-22
-26
-19
-7
-2
-17
-1
7
36
62
47
12
-51
-74
-26
-2
-23
16
16
32
26
20
-22
-9
-6
2
-16
-24
-11
-28
-3
-12
3
24
23
17
22
31
-11
-50
-76
-63
-37
-28
-31
12
-6
18
29
11
-6
-2
-5
-37
-26
-15
-19
-16
-8
-4
10
18
35
19
7
-7
-65
-64
-49
-11
-13
8
-16
-4
15
2
0
18
29
39
7
-32
-23
-29
-16
-12
-6
0
27
27
41
17
6
-2
-59
-66
-42
-20
19
5
20
16
-2
-25
-19
13
36
53
3
-24
-25
-22
-16
-15
-3
11
53
44
41
36
15
2
-38
-61
-53
-29
-7
-5
-15
-13
-23
-20
-12
-1
13
9
4
-4
-11
-14
-15
-7
-2
7
-9
3
10
-10
-21
-33
-32
-20
-12
5
14
36
42
50
55
51
28
17
29
14
-37
4
-4
-18
-25
-18
-7
27
-1
11
23
29
19
23
-12
11
10
-3
11
-1
7
8
23
8
-2
-15
-18
-8
-26
28
-17
-10
-7
-21
-12
1
2
12
42
30
38
25
22
24
4
-5
-11
-12
-1
18
14
-5
11
1
-5
-9
-32
13
-4
-15
-14
-27
-14
-20
-20
-5
21
24
39
28
21
18
21
11
12
1
32
29
17
15
-4
25
9
-29
-51
-2
-18
-20
-27
-12
-4
-37
-30
-2
21
30
35
10
17
14
36
35
25
22
35
35
25
18
21
15
-12
-42
-40
-7
-7
-18
-26
-13
-25
-25
-3
10
14
17
21
12
18
10
10
-7
-19
-6
17
2
1
9
36
31
25
25
-19
-6
2
-23
-16
-17
-18
-25
6
9
-14
-3
-7
-6
-7
0
3
-14
-14
10
16
30
17
17
25
44
20
-2
-14
-22
-17
-23
0
13
7
-18
-2
-6
-27
-24
5
3
9
-24
-1
-24
-17
-4
39
75
95
96
84
60
41
46
15
21
19
-3
5
-1
2
-11
-14
2
23
17
8
18
-4
13
-10
-1
-26
-41
-28
-8
9
13
4
7
26
22
7
-12
14
4
0
6
-3
-1
-10
-5
-1
-13
-12
9
-5
9
30
-7
-32
-68
-81
-127
-126
-89
-80
-47
-26
-28
-20
-21
16
6
15
1
-7
-27
-3
-6
5
-32
2
-2
0
13
14
21
7
-1
-19
-66
-87
-92
-93
-88
-69
-49
-45
-12
10
6
2
-3
4
-4
10
-4
2
-8
-8
-6
11
13
22
41
31
17
21
12
12
2
-23
-29
-35
-22
-30
-12
-1
8
11
12
11
36
8
22
22
7
-12
-12
2
9
-5
8
5
12
20
28
39
34
29
18
-7
-18
-45
-29
-20
2
3
-5
10
43
-3
-20
3
33
-6
-13
-15
-20
-10
-1
1
0
14
27
19
36
36
29
27
30
-8
-25
-6
5
-17
-19
-21
-12
10
-10
-10
-8
-26
-19
-35
-2
25
39
27
26
37
36
38
20
23
-4
2
15
5
22
-7
-4
-1
-21
-10
-18
-17
-2
9
-11
-21
2
-3
-4
31
41
27
20
39
7
9
9
-7
6
-1
10
23
53
10
-15
-7
-25
-29
-20
-47
-21
2
5
-26
-3
-3
23
24
38
46
12
-6
-6
-11
8
0
24
37
22
34
67
32
-18
-13
-22
-25
-18
-44
-46
-26
-4
-23
-6
16
0
3
33
42
-1
-22
3
-1
-3
-1
15
37
17
7
41
14
-11
-12
-10
-29
-23
-13
-22
-27
-20
-17
8
-2
-9
18
23
8
8
-12
30
11
15
4
13
0
6
-6
34
8
-12
-14
-21
-22
-19
-17
-22
-9
-15
-35
-9
0
4
5
28
25
28
28
34
40
19
29
35
-1
18
-3
27
10
-7
-20
-7
-20
-13
-14
-24
-18
13
-13
-6
-11
-5
-24
-8
25
17
34
36
55
27
33
33
-10
-35
-52
0
-25
-17
18
30
20
22
3
-6
0
-4
-2
26
18
27
40
43
3
-11
-2
25
34
35
30
2
-30
-32
-18
-5
6
10
16
31
16
19
12
-16
-7
18
-2
4
33
13
20
2
-34
-8
4
35
51
38
28
-4
-23
-43
-36
-18
20
20
31
14
21
23
20
12
9
3
6
-2
2
6
25
-15
-9
29
22
18
37
30
0
-22
-44
-17
-6
4
29
18
12
29
22
4
4
19
-8
7
4
6
-10
-7
-26
-23
18
29
33
34
32
22
-34
-49
-35
-5
3
19
30
24
18
22
22
12
-1
-19
-44
-48
-9
-34
-12
-15
-27
-18
27
14
26
33
-7
-29
-15
-40
-27
13
29
18
15
15
11
24
16
7
8
-7
-30
-33
-25
-34
-16
-1
-17
11
30
18
12
-18
-45
-31
-16
-27
-25
7
37
34
28
30
29
22
12
12
-4
-15
-20
-19
4
-17
-2
-1
14
35
35
3
-34
-52
-44
-60
-33
-19
-9
26
53
44
32
15
8
3
0
-9
24
-1
-37
-27
-26
-48
-37
-20
21
55
72
27
10
11
12
40
26
7
-13
-33
-20
-18
-7
1
10
8
-4
-13
7
-11
-9
-13
-18
-31
-20
-17
19
43
72
21
15
9
13
13
-5
-2
-12
-9
-22
-13
-6
0
8
4
-3
-6
8
-6
4
-7
-34
-46
-50
-52
-6
32
48
28
-3
14
-17
-22
-5
15
6
-17
-5
-17
-4
-4
-4
4
-8
-9
0
18
6
2
-23
-17
-39
-52
-23
24
44
10
-19
-10
-28
-36
-5
10
2
-26
-8
-7
8
-8
-4
7
-6
-3
14
27
-1
4
-3
-10
-25
-47
-12
1
7
-27
-16
-37
-19
-16
-23
-20
-47
-45
-32
-6
5
-3
4
-11
-6
7
1
37
39
30
39
23
-11
-19
-26
7
-16
-10
-8
-26
-16
-5
-29
-33
-22
-42
-16
-5
6
-5
-9
3
-5
-7
1
48
67
43
31
21
11
23
-2
-15
-32
-37
-35
-37
-21
-30
-46
-31
-2
-21
-29
-8
0
7
-54
-38
-42
-38
-57
-19
-16
12
6
17
28
-1
-5
-8
-2
11
22
12
8
-17
-27
-14
10
0
1
20
-22
-37
-43
-42
-35
-12
-12
8
10
5
25
22
8
4
-4
-7
9
8
18
13
7
-11
1
8
-31
2
54
40
-18
-42
-44
-31
-22
-7
11
30
40
26
15
30
39
17
1
-5
11
3
30
26
-6
2
-7
5
-8
19
41
80
-4
-43
-46
-39
-17
-7
40
48
60
50
25
24
32
19
1
-20
-6
7
11
-12
-6
-4
-24
12
21
14
36
45
-22
-47
-42
-33
-33
-5
51
46
59
51
30
26
18
11
19
10
-6
1
3
-14
-28
-12
-5
4
21
43
39
35
-6
-41
-46
-42
-36
-2
47
45
25
39
13
1
-3
13
8
15
2
14
-27
-21
-34
-23
-14
21
22
40
12
2
-18
-52
-39
-34
-36
19
45
53
1
29
13
19
28
33
44
29
1
-8
-55
-60
-35
-12
23
30
20
23
-10
-23
-40
-52
-13
-9
-4
16
9
5
-2
3
-5
-10
-5
-12
-12
19
24
17
17
13
37
25
10
10
5
18
-22
1
5
-16
-23
-25
-26
-19
-29
-27
-15
15
14
5
2
-9
-10
7
-8
0
-26
2
34
8
7
0
0
3
13
37
-1
-13
-8
-23
-15
-35
-31
-14
12
11
21
34
40
4
-21
-6
-2
-15
0
18
1
-26
-12
3
2
4
6
37
0
-11
-22
-25
-28
-26
-63
-42
-15
3
23
22
21
-1
16
22
28
14
9
-1
-10
-5
-18
-11
-15
-27
4
28
-16
-18
-16
-10
-26
-35
-53
-55
-25
3
9
15
23
-11
23
10
28
5
-6
13
9
8
1
-28
-45
-29
-13
9
4
-15
-7
-15
-30
-27
-23
-34
-13
-9
-14
14
25
14
35
23
6
-4
0
-6
-7
30
-9
-17
-47
-24
-13
7
-6
-20
-2
-10
-15
-31
-39
-27
-33
-15
-12
-3
28
42
42
10
23
5
25
16
15
-14
-19
-24
-44
-31
-23
-13
-20
-8
-48
-42
-27
-18
5
20
22
38
24
7
13
22
27
1
-16
-15
-5
-13
-18
-6
-11
7
-9
7
37
-26
-33
-46
-37
-35
-27
-15
30
45
28
16
-4
-17
-21
-11
-17
-46
-40
-21
-4
2
10
7
14
9
1
37
51
-19
-40
-35
-49
-45
-35
-24
19
32
27
10
-9
-14
-17
-21
-28
-39
-34
-15
-14
15
13
11
24
5
7
8
44
-7
-34
-35
-46
-34
-23
-11
8
28
15
24
15
1
-20
-44
-21
-34
-53
-42
-13
14
3
17
-12
-3
11
-14
-18
-34
-36
-34
-40
-30
-16
25
10
33
32
44
45
14
3
10
22
3
-20
-13
7
14
-27
-10
-34
-5
11
-20
-32
-29
-31
-50
-42
-29
-30
22
4
37
30
11
17
25
35
21
52
28
25
14
6
5
-5
-3
-13
-12
-16
-23
-22
-39
-46
-39
-41
-35
-24
-1
-17
16
11
-5
11
28
25
17
21
47
44
22
17
-5
-25
-23
-32
-36
-8
-7
-17
-21
-30
-47
21
12
13
9
27
9
15
31
15
32
37
23
31
49
87
44
31
23
11
-7
-11
-13
-2
6
-5
26
14
9
12
8
23
16
27
-4
-6
1
10
17
-17
-20
-15
-5
38
27
27
26
-14
-27
-44
-40
-1
-2
-2
2
24
4
15
18
4
17
32
-25
-45
-52
-16
-18
-48
-43
-31
5
34
32
27
-21
-44
-50
-28
-23
-17
8
14
6
12
5
12
17
11
22
-5
-36
-54
-50
-40
-44
-61
-35
5
60
37
16
-10
-26
-44
-21
-6
-23
7
-8
7
-3
10
15
10
13
13
-1
-34
-44
-82
-34
-33
-21
-27
0
43
55
41
0
-32
-23
-12
-13
-24
-17
-10
-11
-8
6
15
9
4
21
5
-1
-40
-63
-81
-43
-13
-9
-6
18
11
20
-28
-49
-28
-38
-11
-18
-24
-22
-32
-37
-12
-8
0
8
18
12
14
-8
-40
-75
-42
-3
10
-7
9
1
-4
-44
-40
-48
-25
-12
9
2
-4
-40
-58
-49
-22
-1
7
9
-16
-11
-14
-36
-20
-24
-14
-7
23
22
34
36
46
25
28
19
2
-20
-4
-20
2
10
-3
-15
-22
-5
-23
-10
-26
-25
-13
-10
-31
-18
0
7
23
8
0
-14
11
26
15
-9
9
-15
-16
10
7
8
4
-13
3
12
-8
-11
-26
-23
-15
-4
-28
-18
20
21
-3
20
18
26
24
5
12
-23
-22
-25
-9
-11
-24
-4
6
-10
27
46
0
-32
-19
-26
-19
-16
-19
2
-2
9
1
4
24
5
8
2
2
-7
-30
-19
-8
-4
-36
3
5
-14
1
35
6
-8
-12
-24
-33
-30
-18
-30
-10
-10
-22
-8
-21
-7
-3
10
17
0
-7
-5
7
-19
-7
23
17
9
16
45
8
-5
-23
-18
-33
-24
2
-17
-2
-2
-16
-25
-19
-23
6
24
10
13
6
5
5
13
-1
25
17
23
-2
28
-2
-20
-20
-22
-16
7
32
4
-11
25
-16
5
2
18
-1
7
30
12
20
18
0
15
15
12
13
-18
-40
-23
-16
-19
-34
-41
-13
-15
2
25
21
0
15
22
-9
-7
2
14
-2
-8
-32
4
23
5
9
25
30
17
11
-2
-52
-30
-43
-26
-11
6
16
4
-5
23
29
29
26
29
29
25
29
10
1
-12
0
-5
1
14
20
19
-3
-6
-33
-26
-40
-24
-19
-5
15
-5
-1
19
12
8
2
25
24
9
10
16
15
3
-8
17
14
10
11
14
-9
-18
-20
-23
-43
-23
-1
4
12
12
-8
-5
-4
-18
-14
-27
-18
4
3
-15
-4
25
8
16
28
25
30
5
-16
-38
-33
-30
-29
-20
-10
-6
6
8
-12
-6
-1
-16
-15
-20
-14
-12
-9
-2
0
-1
13
4
6
8
32
14
-23
-40
-28
-38
-31
-30
-20
5
19
7
0
-2
13
8
-2
-5
-6
-4
9
1
25
21
15
4
8
8
42
29
6
-31
-36
-41
-34
-36
-30
-8
31
4
10
24
22
7
4
-7
0
20
8
16
8
14
13
-4
16
27
14
-28
-29
-17
-24
-34
-38
-36
-27
-32
-10
-8
-22
-21
6
18
30
19
13
-15
2
-7
-6
-8
-19
1
-2
-12
-32
-63
-48
-28
-21
-39
-26
-32
-23
-18
-20
-24
-10
0
16
4
8
-8
11
-3
19
9
14
8
16
3
-21
-33
-29
-38
-27
-14
-32
-34
-37
-22
-36
-45
-52
-23
4
13
-13
7
19
26
30
17
5
4
2
22
21
-9
-19
-48
-39
-47
-16
-33
-40
-36
-34
-41
-26
-32
-62
-25
8
2
13
3
-1
12
11
13
19
8
21
14
-11
-16
-18
-17
-54
-31
-7
-10
-17
-26
-27
-39
-40
-49
-37
1
25
0
-13
-2
-24
-7
17
21
3
10
6
-8
-1
-6
-13
-24
-34
-33
-25
-25
-17
-21
-26
-40
-44
-31
-27
-2
4
-21
-37
-26
-15
-18
-3
12
11
15
-17
-10
5
24
-12
9
-28
-22
-45
-33
-11
-39
-21
-26
-37
-26
7
30
25
23
-19
-11
5
-8
8
7
-4
-5
-3
6
4
-11
1
6
-14
-28
-40
-45
-35
-39
8
8
7
1
5
-31
-34
-30
-22
-4
-22
-42
-43
-22
3
23
54
45
21
29
20
-5
-3
12
24
3
3
7
10
-5
4
4
-21
-49
-62
-85
-84
-50
-71
-66
-23
-18
26
31
31
19
29
28
23
20
10
32
45
3
6
11
1
-7
-4
18
-33
-38
-51
-68
-80
-52
-49
-73
-58
-17
2
20
14
31
37
21
22
0
28
17
31
3
-1
-1
5
-3
1
12
-21
-31
-22
-28
-29
-44
-42
-56
-47
-64
-19
25
26
11
9
33
17
24
16
23
12
7
1
-7
-7
-10
-7
23
4
-23
-4
-15
-7
-13
-23
-18
-32
-35
-27
39
10
-1
-2
27
14
34
0
5
12
13
-11
3
7
1
-10
32
-27
-19
0
25
45
32
28
21
25
-25
-31
5
26
1
10
25
18
8
-4
14
19
3
1
6
8
-5
-7
23
11
-3
30
31
33
25
20
33
33
-22
-24
1
13
32
15
40
32
24
20
12
22
8
15
-2
-18
-34
-11
-44
-42
-58
-26
-53
-39
-44
-6
9
38
18
35
11
21
14
3
-1
2
-20
-44
-25
-29
-18
-14
-13
-35
-27
-28
-19
-8
-19
-13
-51
-30
-33
-47
-15
-10
-17
-1
-7
3
-10
-10
3
-18
-15
-21
-31
24
17
-12
-28
-14
-34
-11
12
-30
-25
-7
-7
-28
-15
-32
-2
-16
-31
-39
-26
-4
10
8
5
-15
-4
-3
0
35
10
-18
-13
-29
-24
-22
13
-12
-13
0
-12
-3
-13
-18
-14
-2
-7
-23
4
14
16
13
27
-7
-7
12
-17
-10
28
-24
-29
-22
-27
-13
27
0
9
34
17
2
1
-8
0
6
1
-19
-3
33
27
30
29
17
20
13
8
4
12
-20
-21
-17
-37
-14
2
22
27
27
11
14
3
-10
22
-5
26
13
-1
6
5
25
21
21
36
36
29
-22
-8
-16
-16
-23
-33
-4
25
35
27
-2
29
6
-5
21
22
11
27
19
14
13
8
1
16
11
35
47
25
-20
-35
-37
-16
-8
-4
-8
4
-4
-11
-9
-21
-9
12
6
26
16
39
-10
-66
-58
-42
13
46
63
29
41
21
6
-27
-11
-10
-3
-14
-8
12
24
2
-20
-38
-54
-26
-16
-18
20
26
-17
-60
-49
-11
28
19
32
15
13
-6
-24
-26
-22
-1
-2
-8
2
0
3
18
-20
-37
-29
-43
-40
-40
-24
6
-28
-82
2
24
34
34
38
6
-14
-36
-17
-34
-13
-14
-17
-5
-7
10
18
19
-1
-32
-6
-34
-27
-20
-20
2
-62
-89
-26
37
45
43
9
-40
-41
-56
-46
-42
-14
-15
-16
-3
-7
3
2
20
24
6
14
3
-1
6
7
-2
-57
-50
5
42
27
35
-15
-32
-30
-53
-31
-16
-18
-12
-21
-18
-8
1
1
10
7
4
8
2
9
17
25
19
-67
-61
-16
28
31
-1
-21
-7
-6
-5
22
5
0
-12
-9
-2
-6
1
0
30
40
11
31
15
9
44
39
16
-19
-15
-7
21
38
-5
-7
-1
13
1
21
3
2
-8
-4
-16
-12
-6
-14
16
48
41
17
-18
-51
-32
4
52
54
-21
-44
-59
-27
-31
-33
-49
-40
-19
-34
-17
-1
-2
-11
-9
5
-8
10
24
49
9
1
-17
-28
-4
26
27
18
-28
-27
-38
-54
-50
-64
-48
-28
-40
-15
-14
1
-7
-5
0
-2
20
-2
5
6
-7
-17
-23
-9
2
24
54
43
-5
-6
-18
-25
-20
-75
-40
-42
-41
-6
-2
-9
-5
-9
3
-8
29
37
4
7
-8
-9
-15
4
24
34
42
31
30
16
7
4
15
-4
-26
-26
-29
-15
12
-4
-5
-6
-10
1
35
37
31
-7
-4
-3
3
0
4
3
19
-1
18
23
26
42
31
30
12
-8
-3
18
7
-18
-2
-10
-8
1
4
26
3
-1
4
-5
3
-9
-21
-48
-32
0
17
41
35
56
36
8
6
19
21
13
5
7
-6
-2
-3
-14
11
10
19
14
7
-5
-3
7
-26
-36
-4
-5
13
-17
0
12
32
46
36
44
54
24
0
-4
-5
-10
1
-2
-5
-22
-33
-25
-12
5
-18
-19
18
46
61
61
16
-21
-29
-35
-61
-77
-73
-57
-25
8
6
2
-2
0
14
15
-10
-5
-19
-11
-28
-33
-47
-2
12
29
24
42
-3
0
4
4
-12
-31
-39
-7
-10
-15
-28
-13
-8
-6
0
13
-17
-25
-2
-19
-18
-31
-37
-23
-26
6
11
7
13
8
22
18
11
-46
-48
-46
-62
-34
-21
-13
0
-13
-4
18
-13
-6
-13
-12
-21
-54
-62
-72
-51
-26
7
12
31
27
47
34
-2
-35
-35
-43
-21
4
10
6
-15
-1
-11
1
18
-9
0
-6
-30
-22
-39
-59
-39
-44
-37
2
8
21
17
26
2
-24
-17
-50
-49
-40
8
12
-7
-11
-5
14
23
5
8
23
6
-5
-30
-25
-48
-45
-39
-14
10
4
22
8
10
-34
-30
-28
-16
13
16
5
-3
-6
-6
4
0
22
35
31
28
16
-3
23
11
-25
-7
-8
8
-2
16
5
-39
-53
-28
-2
21
17
15
25
-2
-59
-47
-32
-6
14
21
35
30
26
10
-1
-24
-28
-7
-12
-9
19
14
24
4
-18
11
30
8
-18
13
-38
-55
-59
-60
-30
9
5
22
20
29
15
27
20
8
15
23
7
2
20
7
15
-3
-14
-11
-5
6
37
39
-17
-60
-55
-47
-39
4
15
31
14
15
-14
1
20
63
37
41
20
0
10
21
4
-30
-31
-28
-9
-6
4
58
-5
-42
-46
-46
-37
-8
2
22
30
22
16
21
18
38
48
23
-2
-1
-10
4
-19
-37
-34
-25
-19
-19
-12
45
-5
-38
-44
-58
-57
-34
9
-6
23
22
9
34
44
27
36
17
-10
-4
-24
-14
-32
-34
-29
-29
-14
-28
1
24
-25
-46
-54
-44
-49
-42
0
-2
10
9
14
14
19
-8
16
-9
-8
-6
-3
-10
2
12
-17
-10
-3
9
-39
-3
-6
-50
-52
-58
-57
-34
-5
8
5
26
32
47
24
31
16
10
-5
13
23
27
33
-6
3
1
-2
-32
-23
-18
-47
-45
-4
-10
-14
-21
-19
-11
8
-7
-14
-29
-10
19
47
48
44
-7
13
-28
-17
-32
-10
-37
-36
-22
-5
2
4
-10
-7
-13
-22
-7
-12
-9
16
-2
4
17
-7
18
34
25
-2
-41
-16
2
-23
0
-16
-4
-2
1
4
21
2
-16
-21
-9
-2
3
-7
1
-4
-6
26
33
29
33
26
13
-47
-54
-18
2
-20
-13
-18
17
14
19
22
26
-3
-24
-4
-4
0
24
0
-26
2
12
43
42
53
51
52
5
-42
-39
-10
-5
-7
-2
-3
5
-4
6
12
18
-8
-23
-4
-20
-16
12
-19
-17
-20
28
23
26
39
50
11
-13
-51
-40
-9
-18
-6
-11
3
-4
-15
12
11
4
-20
-18
-20
-19
-20
-25
-18
-39
-22
17
38
26
26
13
1
3
-10
-12
-12
-41
-46
-28
-25
-27
-19
11
-5
-20
-22
-13
-15
-11
-11
8
11
9
44
43
55
26
24
1
7
2
1
3
-21
-27
-40
-12
-21
-38
-26
-9
-17
-19
-9
-5
-3
-10
-2
-12
-54
-29
-38
-51
-27
-9
-3
36
36
6
20
9
7
-12
-23
-21
-14
4
8
-18
-17
23
-7
5
-3
-3
-8
-25
-49
-53
-23
-30
9
6
7
1
4
8
9
-8
11
-6
-13
10
11
27
-14
-37
15
29
10
-4
-15
-7
-19
-18
-61
-39
-12
19
8
28
1
-10
-7
6
10
-36
-33
-38
-21
6
-7
4
-10
-8
36
37
3
-9
-6
-12
-13
-11
-57
-61
-25
19
25
9
3
12
24
29
26
-15
-50
-18
-5
16
-4
17
12
11
-2
-1
-14
-17
-14
-1
-7
-9
-57
-50
-24
6
15
-14
-24
-2
26
34
10
-17
-30
-17
11
-8
-2
23
11
36
34
44
11
2
4
-10
-12
-14
-10
-33
-14
11
3
-12
-14
-23
-6
39
19
8
15
14
-2
-4
3
26
43
59
20
22
7
-6
-12
-5
-9
-10
9
-17
-10
26
-5
3
4
-5
19
19
23
54
43
28
31
18
26
34
31
1
-41
-15
2
-11
8
10
-5
-23
-26
-43
-44
-55
-56
-42
-21
0
12
29
34
15
-1
-39
-15
-11
-4
-8
-9
-6
11
-3
4
-7
-8
8
9
-10
-33
-25
-30
-51
-44
-6
22
18
13
10
-10
-10
-30
-30
-15
-11
-15
-5
-14
7
10
11
5
1
-9
5
4
-11
-17
-33
-72
-83
-20
11
29
40
17
-23
-45
-23
-21
-28
-30
-6
-24
-19
-52
-14
7
-9
3
6
2
10
3
12
-18
-44
-71
-59
-21
21
35
47
47
-12
-38
-22
-9
-4
4
26
3
-13
-24
-16
-16
4
3
-10
-4
7
3
-6
-24
-52
-79
-25
9
33
49
40
21
-27
-60
-21
-11
-15
11
13
11
-6
-31
-31
-16
-10
-2
5
7
-3
-6
-2
-39
-46
-45
-12
26
29
36
40
6
-26
-35
-8
9
-21
-21
-12
6
4
12
10
1
-1
-8
0
10
0
15
-4
-25
-7
-1
17
25
31
32
42
19
-1
-17
-1
-16
-3
-2
21
15
18
26
12
38
14
4
-10
0
15
12
12
39
55
82
52
43
38
-1
-33
-36
-18
-16
-23
-17
7
2
11
8
2
-8
-44
-22
-1
3
13
11
7
10
7
5
27
46
49
44
48
33
34
23
14
16
10
6
-5
-11
-6
7
-8
6
-14
-31
-10
2
9
13
10
8
3
1
0
11
35
46
45
48
48
69
66
34
12
0
7
19
3
7
-8
3
0
-16
-31
-9
19
14
17
22
-18
-20
-12
-7
21
28
59
43
76
59
65
43
17
-2
17
23
15
-7
1
-16
-1
-3
0
6
0
14
9
17
-16
-34
-10
11
-14
13
15
27
33
43
23
3
-1
-7
-2
-7
-5
-14
-19
-2
-6
-20
-4
12
17
15
1
20
-32
-42
-13
-18
-10
-4
-25
-18
-41
-27
-39
-45
-25
-8
0
8
-4
-14
-14
-14
-18
-7
15
21
15
-6
-5
11
-26
-61
-43
-62
-48
-72
-62
-72
-67
-56
-44
-21
-14
-23
14
7
-8
-12
5
18
11
16
22
5
15
-2
-7
-14
-6
12
10
-10
-43
-56
-78
-92
-86
-47
-38
-30
-24
-37
-53
-49
-24
-36
-25
-53
-29
16
-6
-13
-15
-15
-12
-16
-12
-6
5
-18
-26
-57
-58
-63
-92
-56
-24
-3
-19
-37
-48
-43
-9
-8
-7
-7
-9
27
-22
-9
-14
-2
-19
-7
-10
-12
2
-16
8
-20
-48
-50
-55
-51
-6
7
1
-25
5
-41
-18
-7
24
19
-21
19
-28
-24
-17
-4
-6
-8
-21
0
-8
-25
16
3
-7
-23
-9
-19
-1
21
-17
-37
-24
-25
-41
-2
43
40
12
1
1
-17
-19
-4
-19
-21
-4
6
-13
-32
4
1
-12
-15
-4
-14
3
35
4
-26
-56
-65
-49
-4
35
33
18
9
10
-14
-6
-18
-21
-19
-9
-8
-29
-52
-28
-23
-23
-47
-56
-41
-13
-6
-22
-48
-72
-72
-38
-24
9
31
36
2
8
-15
-22
-22
-17
-15
-10
-5
-7
-37
-17
-34
-44
-48
-49
-51
-49
-57
-73
-67
-50
-30
-14
-6
-9
15
34
40
17
12
-5
-34
-17
-25
-22
-28
-8
-4
12
39
72
53
0
-77
-67
-20
17
21
9
-10
-25
-40
-28
-25
-9
24
22
-22
-23
-28
-17
-24
-11
-3
7
-10
2
35
35
22
-30
-72
-68
-5
25
19
6
0
-17
-6
-13
-10
17
31
8
-17
-17
-29
-21
-24
1
1
17
-4
11
24
25
20
-33
-82
-58
-11
25
8
-16
-9
-3
-7
-6
3
21
41
-7
-27
-15
-33
-29
-27
-16
20
10
-17
22
33
36
26
6
-57
-81
-9
13
-2
-7
-6
0
-10
3
19
10
43
-6
-27
-20
-35
-18
-14
0
-7
7
-11
21
52
56
16
-6
-64
-65
-5
9
1
-13
10
6
2
18
20
34
28
-20
-33
-27
-27
-19
-32
12
-31
-9
-1
8
24
38
9
-30
-61
-34
-19
5
9
-2
-17
13
0
17
29
26
24
-8
-18
-18
-18
-23
-23
-12
-13
10
8
16
24
47
50
38
18
8
9
3
9
-7
24
22
18
33
18
1
-7
-26
-36
-24
19
20
3
15
-44
-93
-64
-64
-78
-79
-118
-103
-66
-16
31
29
15
0
1
1
-16
-24
-48
-36
-30
-29
2
11
17
12
-4
-4
-22
-42
-44
-72
-104
-102
-52
-27
-14
2
8
3
-11
5
25
17
7
-3
-32
-25
-21
-27
2
9
8
2
15
10
-30
-28
-3
-27
-22
0
15
9
13
3
1
-17
-21
5
8
16
9
6
-4
-19
-29
-23
7
5
7
9
9
12
-13
-22
17
9
31
46
62
50
17
5
15
-2
2
2
-12
-1
5
-16
-5
1
-31
-43
-1
11
12
8
0
18
16
26
14
38
57
38
56
30
-1
-8
-5
10
-3
-25
-31
7
28
11
11
1
-8
-21
1
9
13
7
11
17
19
25
28
45
48
49
38
17
-19
3
1
26
-1
8
2
27
27
19
13
25
26
-16
-19
12
4
17
10
5
46
18
41
11
27
10
-1
-21
-16
-14
6
13
4
-9
-11
42
25
20
25
42
27
5
13
7
2
5
21
5
-20
-55
-61
-51
-44
-36
-29
-28
-15
-21
-35
-39
-37
-41
-58
-60
-51
-65
-39
-19
-18
25
27
9
12
11
11
9
-20
-20
-12
-29
-20
-22
-7
23
18
-7
-9
-12
-2
4
10
-3
22
30
21
11
41
29
27
20
2
10
19
20
-2
-2
17
8
7
6
17
20
39
45
32
24
46
57
37
38
33
40
21
28
51
42
22
9
3
20
19
13
14
3
18
13
9
15
38
16
37
43
70
50
49
45
39
25
25
46
31
31
43
75
36
5
10
4
8
31
10
3
0
4
16
-1
7
-14
-4
7
22
-2
11
1
-3
5
1
6
-7
23
22
27
42
23
18
12
17
33
31
21
-9
1
2
-4
-12
-7
-20
-29
-18
-18
-16
-40
-32
-15
-20
-33
-36
-12
18
30
20
3
18
10
11
30
12
6
-6
-1
6
9
14
13
-11
-9
-2
-22
-14
-7
-18
12
-3
-8
-31
-8
24
8
9
12
-3
-19
-24
-11
-2
10
19
-5
15
-1
1
3
32
2
2
3
24
5
-6
21
39
3
0
-8
-37
-16
-19
-16
-4
-8
-19
10
10
9
28
1
4
12
-14
-12
4
14
26
23
35
13
9
30
14
10
-1
-15
-28
-4
5
-6
-13
-23
-26
12
-24
4
46
16
-4
11
21
23
10
28
38
25
21
-11
6
0
-11
-5
-9
-14
-25
3
13
-25
-13
-22
-24
0
-30
8
26
-8
3
-10
-4
-3
19
9
6
15
3
22
-4
-25
-26
-6
-21
-43
-40
7
-18
-20
-7
-26
-18
-10
-26
-7
3
-15
-17
-11
-15
4
12
-4
-14
9
15
28
-4
-10
2
-9
-17
-22
-27
12
5
-8
-17
-26
-32
-20
-13
-9
-2
2
-25
-20
-18
-23
-27
7
9
20
38
21
17
28
21
30
15
25
-23
15
-1
-13
-10
-18
-18
-19
-3
6
7
35
-3
-5
-16
-17
-12
-15
25
30
44
44
52
49
52
65
27
0
-40
-14
-15
-13
-3
-4
-9
-16
-10
-10
23
11
13
8
-1
2
-12
20
44
24
10
-2
17
-9
-11
-15
-21
-20
6
0
6
0
-4
4
13
-6
-16
15
22
18
-9
3
-36
-6
5
16
48
17
-4
-28
-25
-9
-18
-15
13
-8
-7
-19
4
-1
-3
-4
8
-8
-25
10
4
1
-10
-18
-2
19
52
38
28
14
-39
-59
-45
-54
-40
-10
6
-12
-12
-11
-4
-1
-1
8
-1
-4
-8
-8
1
-11
-37
-32
-11
43
62
50
14
18
-24
-40
-55
-44
-33
-36
-18
-34
-30
-23
-1
0
5
8
7
-1
-36
-17
9
13
-3
5
8
22
20
8
2
3
1
-1
-11
-21
-24
-41
-47
-53
-56
-25
-19
-7
-1
6
-6
2
-27
-27
3
-8
-4
20
4
-1
-4
11
0
7
16
-9
-14
-10
3
1
-33
-25
-27
-19
-7
6
-6
-3
7
16
-2
-13
11
9
5
13
18
-4
-20
-13
11
28
30
29
12
32
40
37
-16
-34
-24
-18
4
9
-62
-49
-38
-55
-29
-19
0
18
12
21
25
15
14
-1
-14
-5
-11
9
9
3
7
9
16
6
-6
-30
-42
-50
-45
-53
-49
-48
-25
-7
-13
-5
6
-6
-25
-8
-3
-12
-9
5
8
11
18
2
12
16
-10
-2
16
-16
-64
-53
-62
-52
-51
-25
-10
-20
-32
-9
-12
2
2
21
5
-15
-22
2
-5
3
7
-17
-15
-18
-10
-6
-8
-23
-43
-45
-48
-52
-55
-33
-29
-16
-20
-4
13
1
5
-10
-9
-23
-30
4
0
-6
-20
-17
-21
-11
0
-37
-29
-20
-38
-52
-48
-46
-55
-28
-25
-26
-1
-13
13
12
16
-14
-15
-16
-26
-2
22
6
-12
-11
-8
8
7
-13
-29
-27
-36
-57
-53
-51
-50
-36
-17
-11
4
13
5
-4
-8
-5
-19
-14
-15
13
11
8
-23
-5
6
25
19
-22
-60
-35
-45
-43
-53
-46
-38
-20
12
13
-2
29
12
1
7
1
12
5
18
7
13
-9
-23
-15
-13
0
-12
-13
-55
-45
-54
-54
45
33
41
37
19
5
15
-2
7
25
16
0
-53
-75
-20
-8
16
38
29
17
10
-20
-29
-33
-21
26
45
38
41
45
35
39
23
10
20
11
5
15
7
-35
-59
-54
-22
8
10
11
-1
-22
-24
-20
-47
-51
-37
6
35
40
45
41
31
11
-11
14
18
17
2
-13
-33
-83
-58
-47
2
16
20
-6
-4
-32
-33
-33
-69
-56
-46
-10
39
30
36
33
23
8
2
0
6
-3
-21
-10
-14
-12
-31
-20
20
30
14
18
-12
-23
-40
-56
-56
-50
-44
-1
39
38
33
44
34
18
-5
17
-7
-19
-20
-5
7
-1
0
20
28
45
9
32
28
3
-9
-34
-20
-51
-37
8
29
33
46
34
36
17
0
-14
10
-5
21
43
27
35
27
26
28
44
40
34
39
10
22
-3
-8
-15
28
12
29
43
43
42
33
8
-17
-9
-13
-24
-2
-3
15
31
25
19
38
47
29
39
49
40
34
15
3
-12
8
23
39
37
-4
-4
-9
3
1
-16
-19
-29
-13
-20
-24
-39
-53
-57
-39
-36
-30
-29
-30
-57
-51
-50
-62
-84
-83
-36
-18
6
2
-7
1
-13
-8
-11
-7
-42
-35
-56
-45
-50
-43
-41
-58
-21
-35
-35
-62
-61
-41
-45
-47
-53
-68
-39
-10
6
-4
-2
-1
-15
-5
-2
-20
-14
-29
-37
-37
-32
-42
-45
-21
1
-13
-33
-45
-26
-23
-16
-27
-15
-31
-32
-6
0
-3
3
0
-25
-17
-20
1
-6
19
4
2
-4
-26
10
18
10
-4
3
9
-2
15
-9
9
-14
-19
-9
-3
-6
-12
-12
5
-16
-14
9
28
21
43
36
39
41
40
47
40
10
7
-17
-11
16
14
28
27
-8
-4
-13
-13
-7
3
-1
-1
8
9
11
20
17
8
9
15
36
19
28
39
13
2
8
11
24
56
44
23
2
19
-18
-14
-3
-9
-3
-5
-8
16
13
2
17
13
3
11
21
11
22
17
23
37
22
12
38
53
50
52
53
41
7
-7
3
-44
-34
-38
-45
-41
1
-12
-10
-22
3
13
11
-7
-21
-36
-35
-33
-34
-14
-31
-33
-4
21
28
48
2
-14
-39
-50
-48
-37
-34
2
22
-4
-3
1
3
-7
-16
-2
6
4
-1
-6
-14
-17
-12
6
11
-16
13
78
23
-19
-34
-39
-37
-43
-6
30
19
15
0
1
18
11
12
4
-11
30
22
12
7
13
23
30
24
13
33
68
45
11
-39
-37
-50
-45
-3
47
31
9
12
31
31
-1
-18
-30
-2
14
10
-5
6
16
11
0
25
35
31
27
42
-19
-40
-48
-40
-47
7
21
9
3
31
30
33
23
-4
-14
-16
10
12
9
6
18
-7
-11
5
34
48
25
28
-26
-41
-32
-32
-32
-1
6
17
3
32
17
13
15
22
4
-6
3
18
5
9
15
-3
-1
35
33
56
18
4
-34
-39
-51
-42
-36
-6
10
8
10
25
13
20
36
27
28
-11
0
-11
-12
-18
16
10
19
7
32
40
2
-16
-47
-49
25
14
21
17
44
26
36
40
30
21
15
16
9
24
-4
-2
-19
21
-16
-39
-51
-76
-101
-56
-18
3
3
9
13
12
25
18
47
36
16
7
3
18
25
2
14
0
-2
23
34
45
14
-39
-27
-41
-31
-27
-33
10
2
21
21
22
18
4
27
31
25
9
-15
-13
8
6
7
-4
11
51
73
47
-9
-76
-66
-60
-15
-1
-17
10
16
21
9
16
6
12
9
30
24
0
-36
-9
-29
-28
-6
29
27
41
68
49
-47
-104
-87
-54
-33
5
-1
25
12
10
13
16
8
-3
5
0
-21
-1
-6
-15
-18
17
-6
9
14
26
51
22
-59
-103
-76
-58
-14
-5
0
14
27
24
18
24
9
14
17
-3
-26
-13
-5
-6
-12
6
-22
7
4
19
27
2
-76
-65
-71
-25
-9
11
25
40
19
20
12
22
18
0
6
-18
-19
-6
17
13
19
25
9
5
-25
-2
-13
-53
-78
-57
-20
18
20
32
50
42
31
14
-26
-22
-27
-6
-8
-5
5
-14
-24
-6
-10
-10
-11
-10
-7
-9
-8
-6
-8
5
-5
-6
-2
-28
-12
-3
-30
-36
-33
-15
-9
30
43
-2
-20
-28
-16
-4
-20
-4
-4
-13
14
-12
-12
-6
-11
-7
-14
-7
-32
-22
-24
-15
-26
-43
-25
-16
-10
22
28
12
-33
-68
-39
-17
1
23
20
32
8
-1
-21
-5
12
3
18
-12
-25
-29
-31
-33
-40
-25
-38
-29
11
16
8
23
-24
-45
-13
-7
4
20
16
25
-5
-9
2
16
16
28
5
-3
-36
-46
-66
-63
-36
-19
-35
-26
-8
38
-20
-1
-13
-12
14
29
46
50
38
14
-7
20
27
43
26
25
18
4
-27
-59
-88
-52
-30
-26
-36
-33
-15
29
-19
-4
-7
1
12
6
26
-2
-24
-21
-22
-5
25
38
21
21
8
25
1
-37
-55
-45
-14
-25
-26
-26
-23
-5
-1
-2
21
26
7
0
0
-30
-33
-18
1
20
40
23
28
9
19
8
-13
-49
-57
-29
-17
-37
11
12
6
12
11
-29
-41
-47
-27
-31
-24
-48
-12
2
11
19
15
31
6
24
39
39
0
23
17
3
30
24
26
23
9
7
-2
-17
-5
-9
4
18
5
11
6
27
26
14
-8
17
10
12
24
31
33
0
-22
-7
10
19
28
27
7
-5
17
28
32
37
47
48
28
32
49
45
22
18
13
2
10
7
7
31
33
-4
-20
-2
22
21
15
6
11
-3
7
31
40
66
53
45
46
23
33
12
6
17
-10
-4
30
-6
-11
-4
4
-14
-41
-18
9
28
19
22
4
-3
-8
4
0
10
0
0
-9
-14
-48
-64
-32
-7
1
9
19
10
-4
26
4
-31
-34
6
32
32
21
22
10
5
-8
-25
-19
-31
-57
-63
-55
-58
-50
-60
-16
25
18
19
5
16
-6
-1
-30
-20
-14
20
10
20
11
29
12
-8
-53
-98
-88
-101
-122
-86
-79
-56
-37
-36
1
35
20
18
17
-15
-13
-16
-11
-21
4
17
15
14
8
-14
-16
-6
-19
-6
-7
-4
-23
-24
-4
-2
11
30
33
-18
-26
-39
-32
-25
-18
-23
-13
-21
-3
-29
-9
-12
0
8
-12
-14
-9
-15
16
-11
-4
2
18
-26
-4
13
14
-29
-45
-8
-40
-24
-1
-15
-23
-38
-14
-27
-1
2
-13
-3
-9
-7
-12
2
13
26
-14
-15
-9
-14
19
22
25
-45
-58
-45
-54
-37
-29
-12
-25
-17
-7
-9
2
2
-5
-4
-15
6
7
10
14
22
-3
-7
29
34
53
62
49
-30
-41
-29
-51
-42
-18
-26
-31
-26
11
15
-9
-8
3
-1
-4
15
16
21
6
-2
-7
21
42
63
58
67
20
-28
-2
-7
-42
7
-6
-1
-5
-19
8
0
1
1
-1
-2
-11
1
11
17
9
18
45
17
34
39
39
35
-1
-11
21
23
20
17
25
-16
-24
-19
-1
3
-13
-1
1
-11
-2
30
36
42
84
35
40
37
19
7
6
1
-14
-11
9
10
10
35
36
1
2
30
7
-2
4
-2
-56
-48
-45
-34
-3
22
24
17
-8
13
-3
-13
-7
-11
-17
-7
-24
9
22
8
2
18
32
38
33
-5
-43
-50
-47
-31
-20
6
43
13
-5
9
-3
11
0
-2
25
-3
10
-4
-12
-11
16
-19
3
-4
8
24
22
5
-49
-42
-53
-32
-21
-9
12
-9
-31
-11
0
-19
-12
3
39
18
15
-10
10
0
8
1
5
9
12
11
0
-31
-35
-38
-58
-30
-4
-6
26
8
-23
-4
1
2
4
6
2
17
7
-8
-10
8
7
17
2
-2
-2
8
-14
-54
-36
-52
-39
-46
-10
21
15
13
4
12
3
-8
8
27
2
-11
-7
-6
-11
4
-2
-3
-9
-14
-9
1
-37
-44
-47
-46
-57
-31
-22
23
10
16
5
26
20
13
0
-8
-3
-23
-16
-8
17
16
14
10
-9
4
17
16
4
-42
-25
-51
-42
-38
-41
2
5
4
9
6
10
11
-12
-16
-24
-13
-33
-16
-6
13
10
-7
30
19
32
13
-5
-15
-30
-53
14
23
10
16
16
53
71
47
33
0
8
31
42
46
49
22
29
51
51
30
25
-2
1
-5
36
39
38
22
22
9
11
23
0
44
36
50
43
12
15
44
25
38
38
28
3
13
5
26
9
-21
0
-1
16
9
14
21
11
20
13
16
5
25
9
9
43
33
18
1
14
33
32
22
0
5
7
11
-1
-15
-2
-24
-10
11
36
12
17
20
3
12
18
4
16
13
38
16
-25
-38
-24
-5
-19
-39
-17
-33
-12
-19
-4
0
8
-23
-14
15
22
12
27
12
3
2
9
29
43
22
0
-19
-59
-60
-46
-16
-16
-46
-3
-10
-34
-13
-17
-13
-14
-15
3
11
25
29
25
24
4
3
37
31
22
-2
-3
-35
-61
-56
-2
8
2
2
30
1
-1
-19
17
25
9
0
-18
2
19
15
28
11
8
12
6
6
-26
0
-32
-66
-67
-42
15
25
11
12
6
-20
-20
-32
-18
33
-7
2
1
15
9
18
0
5
6
20
-14
3
-19
-13
-10
-27
-23
-45
-68
-41
5
-21
-13
-10
12
6
-6
31
65
51
19
26
28
11
-1
-7
11
-1
-27
-26
-14
-43
-47
-42
-42
-15
-19
21
17
12
15
7
34
11
25
37
49
34
49
40
20
1
-2
-2
-7
2
-44
-40
-17
-39
-61
-41
-16
-24
-14
12
38
8
36
50
56
41
24
27
24
38
39
47
35
8
16
7
5
-15
-37
-52
-43
-41
-40
-27
-39
-18
18
44
25
28
39
19
23
30
26
5
31
30
67
62
30
19
13
3
3
-25
-39
-26
-26
-20
-26
-34
-50
-27
22
26
10
3
11
13
8
-9
10
-14
-3
17
37
42
17
16
-2
8
13
-24
-52
-52
-18
-2
2
-10
-8
6
19
12
15
18
23
16
-13
-34
-20
-45
-54
-24
-15
6
11
12
-4
16
12
-22
-42
-38
-22
-27
-46
-19
-29
-8
25
10
9
-4
1
16
2
4
2
-22
-75
-36
-25
-4
-1
13
