-85
18
35
9
21
21
17
-33
24
18
13
19
-65
21
25
-18
-96
-6
14
-14
6
32
28
31
14
-1
-34
-16
34
46
1
13
32
-2
14
18
4
-56
-3
33
-31
-31
26
6
22
55
-24
21
34
-58
-50
-34
-33
40
-57
-23
27
25
-7
-65
0
42
-59
-53
79
18
-29
-6
7
15
14
11
-5
11
-7
10
30
1
19
-4
72
1
-12
-5
-24
-31
0
-8
1
10
53
-6
-55
-44
8
2
20
-20
1
-20
-32
28
24
23
-18
18
4
37
-9
0
-47
-54
2
52
0
-5
5
-12
59
28
-2
-55
-1
-16
0
-4
7
42
11
6
-23
-55
31
12
23
17
8
-15
-7
5
-17
3
-35
-24
-12
-26
-51
23
0
9
3
-7
-58
2
58
0
3
-7
-4
12
-21
21
-9
-12
19
9
8
-5
38
7
-3
4
7
15
-15
22
-4
53
40
27
14
-21
27
42
-20
6
-1
43
67
-26
-10
14
6
15
-17
12
42
66
22
1
49
54
10
52
-36
7
-19
-9
-16
-9
-11
9
10
14
46
32
-25
-14
0
-27
97
11
-27
26
54
3
5
-2
-16
6
27
59
33
8
-15
-15
29
12
-40
22
19
-2
-67
3
-9
17
-20
20
18
30
13
14
70
27
-74
25
-72
19
43
-53
-1
-40
-18
29
-42
10
-52
-1
-8
0
-18
-12
-42
20
-54
-22
71
-17
-54
-2
69
-4
-51
30
47
47
2
27
-58
32
23
-39
29
-6
-17
43
3
10
-2
26
15
-6
-28
93
5
15
-12
7
25
-40
20
-65
-73
17
-3
26
15
-49
-19
22
20
32
-3
48
27
13
33
-15
47
-31
14
-32
44
7
50
-9
20
-33
48
30
32
12
38
-5
16
36
63
-18
-41
-6
41
34
60
-26
-7
4
21
-77
27
-4
1
-18
38
-55
-10
2
19
22
-13
-39
18
-2
-10
8
-79
-2
32
23
31
-46
-40
39
47
-26
28
45
-5
60
-11
10
-17
-21
59
-46
12
3
41
-9
34
8
5
-32
56
6
4
39
4
5
17
-9
43
-1
-5
31
36
4
58
-3
-31
-16
32
-24
-1
-12
14
37
16
-49
-32
-9
3
38
-7
-1
5
7
-4
22
-71
-30
33
8
-1
-38
-32
23
28
-21
40
-6
16
55
0
21
13
11
3
-40
-14
-32
-37
20
38
11
24
11
15
-10
-71
-3
-2
-54
-20
-2
-14
25
-34
7
33
3
20
18
7
7
-3
-19
26
-41
-8
18
12
-37
24
28
8
-77
-5
-10
53
-8
1
16
-40
-7
32
6
42
-32
-63
6
13
24
-47
-15
54
-24
18
23
-14
27
-8
46
26
30
-34
8
-16
-52
-1
-14
-34
18
18
4
15
58
42
28
59
44
-6
-49
22
6
-11
-11
19
-3
8
-23
26
-13
28
-45
12
18
10
19
-79
-70
34
-20
15
10
24
30
-16
-23
31
-54
36
-67
12
22
-2
71
4
-3
38
-18
-16
16
39
7
27
7
9
-14
63
0
-24
-2
45
3
44
8
42
1
-10
51
1
7
27
-20
2
24
18
0
21
-17
-29
-24
-43
10
-14
16
1
27
4
-39
-18
-14
-26
60
17
5
-23
-33
-32
-19
24
27
25
-66
-11
-41
3
25
1
-72
16
56
19
-39
14
4
-5
-34
38
55
-49
-54
16
11
-23
15
11
-15
-1
12
-13
-25
0
-45
-2
-47
-15
-29
-5
74
13
-9
-17
37
18
-43
33
7
-9
-93
19
18
-4
45
-6
5
-8
4
-25
-20
-43
-13
46
-1
-62
-31
32
38
-5
-24
44
-37
6
-40
21
0
4
14
20
31
37
-6
37
-11
27
-34
57
3
29
30
3
48
75
25
-14
41
-5
8
-3
1
6
0
-1
20
-26
8
35
-27
13
27
39
-6
-7
-4
-17
105
-2
-39
2
-17
34
32
23
0
2
9
-8
7
-15
-19
-28
27
21
-7
-26
9
-47
-76
27
12
-14
27
-45
-30
-37
34
-35
-21
-10
-66
33
5
-4
19
25
29
27
6
30
20
-12
-29
27
-18
38
18
16
-7
-22
-21
41
10
5
10
14
22
1
-57
19
20
-35
-28
10
-42
62
1
-25
22
-11
22
26
20
6
-36
-3
3
10
54
0
15
-40
1
11
18
13
28
32
-14
5
-17
9
-1
1
-21
-3
-7
34
1
44
-45
22
8
8
22
14
47
25
33
36
-34
-10
66
43
-10
6
-48
20
16
20
18
30
13
1
66
-5
7
14
50
2
-23
90
-46
8
-10
12
31
-35
-13
21
3
36
-74
-34
33
-11
-35
-31
35
-15
-29
25
5
-16
20
14
1
6
53
-9
43
24
10
-16
-18
-34
-14
-31
12
-7
-17
18
46
-38
9
23
-20
40
23
-38
45
6
32
35
-36
4
16
6
-18
47
44
11
25
-37
35
-6
14
-11
30
24
24
26
35
27
6
-19
9
-5
4
58
14
50
-12
7
18
23
50
-6
9
2
-38
10
10
5
3
-26
49
9
37
-14
-4
-5
19
-2
-29
-18
5
13
20
47
-12
-11
18
19
11
19
14
-6
23
11
9
-37
14
-28
-34
-25
-66
-26
33
-40
-18
-24
-26
-60
-1
12
9
-28
24
-44
22
16
-3
18
-8
-46
0
30
-15
10
6
51
-76
-16
74
-8
39
-4
44
11
-27
2
20
51
-27
-61
15
-7
18
-48
40
-51
15
21
11
-4
26
-29
23
7
12
13
-48
33
61
-50
1
9
4
11
-6
-23
-65
42
-40
-24
41
9
13
61
-5
-6
27
23
-9
-43
21
57
-29
-32
-14
30
-46
4
13
48
-38
20
74
-19
29
-22
35
0
-43
47
-7
-12
-24
-58
-14
-13
21
-44
36
-36
23
20
29
-3
15
-17
48
-1
14
17
-73
16
55
-48
15
22
-12
31
8
-9
-41
62
-37
19
-3
13
5
46
36
2
19
11
-2
-15
10
34
-33
-37
19
42
-7
-29
39
34
-92
4
51
24
30
6
31
-31
-5
-76
26
34
-50
-11
14
-5
43
26
20
-31
52
11
13
12
32
15
38
-1
24
30
-60
1
77
-31
-3
2
3
-13
32
-58
-12
58
-60
-91
-11
39
5
47
0
3
44
36
-7
-19
6
25
-28
8
49
40
73
21
9
24
-12
-9
13
51
-49
-24
69
3
20
-65
4
68
6
4
52
42
19
38
10
-55
22
-4
-30
18
36
84
-27
37
8
13
30
13
75
41
9
48
38
26
0
-37
-29
17
32
-45
11
47
44
46
-24
-4
8
13
-4
14
4
-10
30
42
-2
-29
61
-8
1
25
11
52
-37
24
-10
22
23
-8
39
-39
20
70
23
-33
6
0
-4
35
27
-70
-2
94
-21
-13
-4
8
-12
-14
22
-12
-3
9
48
-37
33
-8
-15
6
-2
-14
8
-17
-8
2
-10
-46
2
25
-8
-4
63
21
10
-54
0
-24
-38
-7
31
53
-72
12
43
19
-2
45
-2
-4
58
-28
18
54
-5
53
15
-73
-34
57
36
13
35
-34
21
64
28
-22
-3
25
44
-9
32
36
2
22
-4
19
-23
5
-30
22
29
43
25
13
-29
43
-51
70
26
10
26
-10
-11
27
-55
-19
-7
-32
-26
52
66
-49
-18
-12
57
8
-28
36
35
10
-6
28
-2
-4
-1
9
6
-71
17
63
29
-72
3
11
-1
35
23
-89
26
85
-10
7
27
-35
47
21
30
-12
-1
-11
8
-19
-18
13
1
30
15
-27
16
-31
60
-20
45
4
-11
58
-18
16
81
32
27
7
38
-17
-16
5
-15
-4
-5
5
-22
8
13
-11
3
-17
-3
-1
-9
-2
-10
-3
-12
-15
-13
4
-15
-20
-5
-22
6
-4
11
15
-6
-22
-16
2
-17
-8
-22
10
-18
-6
4
-13
-2
10
-3
-16
-21
-16
-8
-13
-10
10
-23
13
0
-1
-7
4
7
13
6
16
5
-19
-3
51
28
27
-29
26
41
24
29
-24
19
2
29
29
14
-34
-6
57
-25
-48
-85
-15
-4
-1
36
25
-25
90
-12
6
56
-28
-12
2
27
-14
15
0
-9
31
19
21
5
-28
10
15
31
-33
34
33
24
-21
-15
34
26
36
73
15
-79
18
-108
27
4
-17
29
5
-42
11
71
35
10
22
14
26
28
43
-2
-6
39
47
11
-39
81
74
88
39
15
25
-33
-6
41
-103
54
-30
-58
37
45
8
-14
40
27
32
40
39
24
30
10
60
-35
47
-18
38
-1
33
-16
-7
44
-39
32
-25
-77
3
47
41
82
-26
23
20
-9
-68
-31
41
-6
12
-22
-4
-3
0
-17
28
5
-49
13
34
25
-24
7
-37
-39
-4
28
3
13
22
19
22
13
-2
-16
22
19
-10
-22
26
24
4
-62
-9
-21
38
-46
14
17
20
21
-42
-47
29
-68
-29
22
18
28
-13
-8
12
-38
18
-47
-14
6
-33
43
16
-2
-32
20
-2
-1
-8
-5
-2
-9
-3
16
-18
-7
-22
22
1
30
16
28
23
-4
-15
-10
24
-17
-8
-18
10
-25
-14
-6
-2
0
15
-4
7
90
-11
28
-5
17
8
-11
-10
-39
58
10
-12
94
21
16
-10
-5
17
-2
-30
41
26
73
39
15
33
-20
45
16
-47
-10
7
-39
12
10
7
19
10
-25
-1
40
4
2
5
2
-2
31
5
-21
-2
-38
-12
-9
-28
8
6
-45
4
-6
-49
-43
-9
23
-3
-24
-56
-2
-8
-19
55
-26
-19
-12
61
32
-15
-48
-8
-1
-11
-4
-34
5
15
13
26
-8
14
29
14
-15
3
24
1
4
46
-17
-4
0
7
69
6
-30
-78
27
-10
-8
-84
-25
-21
-5
17
30
32
-16
8
-9
-6
22
-28
12
-9
2
44
1
39
-2
44
45
28
1
9
-14
31
6
49
14
-33
23
10
-23
-92
26
30
34
-62
-74
26
-5
23
-36
-8
1
-52
-4
13
24
-34
16
14
-34
-91
42
-35
32
-32
-30
-32
-20
-17
-11
-23
-13
-62
24
26
24
4
16
20
-6
-5
36
-12
18
-34
-19
6
15
22
6
26
71
12
-1
19
27
-11
12
18
-12
-2
23
24
-7
-93
19
16
14
-69
-96
-22
32
15
-34
6
17
-29
-13
115
-9
-31
20
18
-8
34
18
23
68
-15
-59
-24
31
12
-6
-7
-11
-5
4
-20
5
21
-31
-12
1
6
22
-7
-37
25
-16
15
-38
21
25
9
24
20
-19
-2
-22
35
-18
23
-28
4
1
-30
-14
-19
7
-19
20
-45
39
34
-3
22
-42
-21
42
3
-14
-28
23
68
8
55
19
-2
19
60
26
18
-43
15
-2
-9
-18
-30
-3
-1
-10
51
-2
34
-12
21
16
47
57
-17
38
63
31
29
-44
16
16
22
-25
-19
-38
12
3
12
22
55
35
-75
52
43
33
-18
-5
-21
-9
-63
-22
26
-35
-16
-32
-27
0
-51
20
12
-12
-15
15
1
-18
-18
13
4
-9
-4
-8
-17
12
-12
-10
-15
-10
-17
6
-7
-3
-14
-9
-9
-10
-8
1
11
-8
-6
12
2
-3
-3
7
-7
-18
3
-16
-10
-14
-16
-16
-5
-16
-12
11
0
1
-17
-9
-14
-14
-5
13
4
9
9
-17
3
11
2
1
27
32
-1
-4
8
26
30
14
25
12
-2
46
93
-19
-1
36
20
15
-14
30
50
16
-6
40
-57
-14
-12
5
54
-18
-21
-17
57
-47
-10
0
-5
55
4
27
0
2
-8
-51
-9
-36
2
37
-15
3
63
12
-20
9
-2
88
36
11
9
84
35
-3
-25
-42
26
-19
50
6
-12
39
17
5
20
-4
3
-33
8
-2
3
41
25
37
6
29
7
-41
14
43
-91
-6
55
35
46
1
36
18
19
-27
40
8
-1
-35
-13
11
-38
1
18
-44
23
-18
-20
43
35
-27
36
8
-43
6
-59
43
37
33
-37
50
-9
-6
-24
-31
-21
60
8
-15
6
-21
-14
-23
-1
60
37
16
-16
7
-20
-55
-80
-36
-14
-33
58
32
-3
2
53
11
-9
1
-19
60
9
-13
44
-7
-4
-6
-20
38
-4
29
27
13
-15
28
-1
13
-4
24
34
26
-40
-7
-5
-4
26
12
-2
-15
8
-13
39
29
-49
-14
10
-47
26
32
34
59
20
39
-11
-13
-7
-35
44
27
9
8
2
18
17
69
5
0
58
-40
56
7
127
35
6
-47
55
0
3
-34
38
31
34
5
48
-78
39
-5
3
23
36
22
-44
-45
49
58
1
27
4
63
4
-18
26
-6
-1
-5
-51
-12
34
40
-43
-14
38
6
37
21
5
-5
-14
0
16
2
-22
-8
12
-35
-85
7
-6
23
29
29
13
-21
53
5
40
10
-5
15
32
-7
8
-15
0
24
-4
31
34
-1
85
13
9
32
36
61
-22
1
21
28
23
-1
0
-15
-5
-17
18
-9
6
-17
42
5
-17
66
42
9
-14
5
-17
31
25
21
63
-31
-14
-5
57
35
18
37
11
22
11
24
-16
38
-13
34
-8
43
-45
-3
19
8
-1
39
13
30
19
-9
43
-29
31
-16
-49
30
18
-16
4
-27
14
-6
-26
17
-9
1
38
34
-5
8
0
32
50
1
-8
7
-30
-18
2
16
17
-1
11
0
-16
18
10
11
-10
11
-10
2
14
6
-15
12
-2
2
-15
-12
15
-12
7
1
-4
3
-1
11
-5
-12
4
18
-12
9
-17
1
-6
-8
-16
-13
-7
-16
-5
-5
-9
-7
4
9
-14
15
-3
13
2
17
3
16
14
-9
18
10
13
-3
-14
2
14
11
11
14
-10
12
-2
15
-18
16
13
7
1
2
7
-13
-7
-15
2
9
14
-12
-2
16
6
10
-4
-12
-12
-15
10
-10
11
16
14
-4
-12
-11
17
12
16
-11
4
0
-14
0
1
3
-10
4
-8
16
3
-11
-9
-6
-6
4
-17
13
-18
16
18
-8
0
-14
16
-3
16
8
-10
-10
-4
-16
4
14
-3
-2
11
-17
11
-14
-14
-3
-5
1
-2
7
-2
-17
-9
-10
-14
-15
-5
-2
7
-11
9
8
-9
12
14
-3
-10
-17
4
-6
3
-1
8
-17
14
15
16
-12
6
6
1
-13
-9
-10
-6
15
4
7
8
9
9
-1
5
-7
4
-6
8
-2
-14
4
-12
8
-18
-13
0
6
-10
5
-6
-10
-7
4
-16
15
1
-6
16
5
-13
-11
-16
15
10
15
-5
8
-18
-14
-1
-6
8
-14
-1
16
-16
8
17
7
8
-1
-13
-13
3
-2
6
-7
-4
17
0
-13
12
14
-17
13
18
-11
-5
-18
6
6
6
-7
-2
-7
-17
-4
-16
5
-9
-4
15
3
4
-5
-5
-2
0
12
15
-7
-11
16
-2
-3
14
17
18
16
-2
-2
13
17
-3
16
-14
16
12
3
9
-14
6
1
-16
15
-10
11
7
18
6
1
17
-7
0
-10
-16
4
-18
15
16
0
-4
5
-5
-14
17
17
8
12
17
-8
-8
-12
-3
1
5
-13
3
10
10
-6
-3
-4
3
-13
3
-11
-4
-1
5
-14
-3
-14
-14
-6
18
15
12
2
8
-17
9
2
-12
-9
17
-4
-1
-2
0
12
-13
-5
-6
-6
-9
13
-6
4
-4
5
9
10
-16
7
-4
2
-12
-10
8
4
-15
-16
-3
-7
18
13
-9
10
-5
-2
3
11
-3
10
-6
2
6
17
14
-1
8
-9
-1
7
-13
14
18
-1
-3
11
1
-14
6
-4
17
7
4
-17
-1
-13
-6
11
-1
7
8
14
-14
-16
4
15
-1
-16
13
16
-1
17
-3
-17
-11
7
10
14
-6
5
-4
17
14
12
1
-4
8
-7
-17
-1
-14
3
-4
-3
-5
-6
7
17
15
6
3
-10
11
-8
18
-15
-10
-3
7
-1
3
5
-10
7
-15
-9
-4
12
16
-11
-10
-8
-16
-17
15
11
16
-15
-10
-9
-1
-4
6
-9
15
-17
-17
-8
4
14
-13
2
10
-8
15
17
3
-11
1
-5
3
-11
-14
-12
-16
-6
3
-9
-1
1
-8
-8
-8
-7
-8
-10
-15
-11
-7
1
-17
-5
2
17
0
-17
4
4
-6
15
11
-15
11
-7
8
-2
5
7
2
-5
16
-3
5
-5
-13
-17
-7
1
-6
12
13
-11
3
18
-10
17
15
-3
-18
-9
7
11
-14
-14
-6
11
8
-4
12
15
10
-2
15
-15
-17
-12
-3
-2
-1
1
1
0
-14
17
-5
-5
4
6
6
1
7
-17
-15
9
-7
-5
12
-18
-1
-15
6
13
6
-5
17
10
4
4
11
16
-18
-2
17
17
-17
-14
-5
-9
-11
2
-15
5
5
-8
0
-11
18
-5
0
0
-6
10
9
-5
-18
10
2
12
14
15
6
12
13
0
13
-17
11
9
-12
-7
6
-2
-2
6
13
15
0
10
14
-2
2
15
9
4
-12
-15
-10
-9
-1
-2
17
-10
1
16
-4
-1
-16
-15
5
-13
8
-3
9
16
-9
-11
3
13
-14
-12
-14
17
9
9
-17
-9
13
15
-2
6
5
-5
-10
-10
-12
-12
-12
15
13
-12
-7
9
-5
5
5
4
-3
17
-1
5
-4
-1
-4
-17
8
-3
-4
10
1
-8
15
17
4
-1
-10
8
9
17
2
-8
4
16
5
7
16
16
7
-8
-10
1
-1
17
-3
5
-11
1
5
18
2
-15
-10
0
-16
-5
14
15
-12
1
-6
5
4
15
7
16
11
10
-8
-12
-14
15
-13
-4
-2
-16
6
-5
-3
-4
13
-15
-14
-3
7
-8
-12
18
12
-13
-2
12
6
18
10
8
4
6
2
12
7
11
-7
-4
-10
12
4
-5
-17
10
16
1
-1
-6
1
10
-10
8
-1
-13
11
0
-14
8
7
3
-18
1
12
8
11
-6
12
-18
-17
-2
0
-11
4
2
-15
2
1
14
7
12
-10
7
-11
-4
5
5
0
4
1
17
-16
-1
10
-8
13
3
14
7
11
10
13
6
8
-4
-15
-12
-10
-1
-10
8
13
0
-4
-2
8
14
-7
-8
2
3
16
-3
-2
-2
4
8
-12
-1
1
14
11
-10
11
16
-15
5
6
-2
13
0
-9
10
10
-11
18
0
8
15
14
8
15
-14
14
-6
-18
1
6
-16
-3
9
8
-17
9
9
-4
8
-1
17
-10
3
2
16
-17
13
-16
-7
3
-17
17
-16
1
-2
-3
11
13
5
-8
-11
3
0
-2
2
-3
-3
-7
-18
9
-5
4
5
-2
1
-9
-14
7
-12
2
-1
-10
-9
-8
12
-14
0
-9
10
-6
7
-6
5
15
5
15
-6
6
15
-6
-6
-2
13
16
18
-4
-13
15
0
-1
-13
3
9
2
-4
9
-17
11
-1
2
-13
3
1
-13
11
12
-15
-9
0
17
-18
4
2
-4
9
-9
11
-17
-11
10
-13
12
8
-8
-3
-8
-13
1
-1
-4
-9
-4
13
-7
-15
15
-7
14
-17
2
18
17
-1
-8
-6
-5
1
2
-11
2
-14
12
-18
-6
-8
0
14
-11
4
16
7
-4
5
-9
-5
6
6
9
8
6
17
-7
13
17
-17
3
7
-13
17
9
12
5
5
0
-18
-11
-13
-18
-15
-5
-7
-16
12
3
-10
4
14
-4
3
9
14
-10
1
11
13
14
8
-8
0
-16
16
6
-15
-11
-13
4
-15
-14
8
-6
-6
-4
6
11
-13
16
14
-15
1
12
-4
-15
5
4
1
11
13
18
10
15
5
11
10
-7
16
16
-17
13
-15
-17
-6
-10
7
8
-17
-12
-9
12
-4
-7
-9
1
-15
-1
0
4
13
6
-5
13
15
-12
-10
-16
16
-15
17
11
-9
7
12
3
-1
15
-7
17
10
18
-11
-18
9
12
-11
-10
-2
-13
7
-6
-14
-15
13
-5
15
11
-10
14
-4
3
16
2
-10
3
1
0
-9
1
-2
-15
-1
16
17
12
-17
16
-17
-15
-10
1
-1
8
-3
-13
13
12
8
13
-3
9
-10
6
10
-10
-2
10
-1
14
7
-5
-14
14
-17
-12
-7
-5
-3
-1
1
17
-13
-5
-15
-18
-16
-2
7
-11
16
-1
5
-12
1
-2
-9
18
-12
-9
-9
2
-12
4
4
-1
-16
-8
12
-12
17
-14
17
-17
-8
-3
17
-14
14
-4
-9
8
16
-3
5
1
0
14
13
17
-13
-6
-14
14
-8
2
1
15
7
-18
13
15
-2
-9
-11
-13
6
-15
-9
14
16
9
4
8
5
7
-18
16
5
10
-2
14
-17
-11
-11
5
-6
-16
-16
-8
9
12
8
7
-15
11
10
-17
10
-12
-12
-14
14
-3
0
5
8
-14
16
11
16
-5
9
11
-17
14
16
-4
0
15
6
-11
-5
1
-12
-8
-4
14
9
5
14
15
-14
13
-13
6
-15
-13
2
2
13
11
-17
-4
-7
10
8
3
9
-2
-16
-8
11
7
-17
-2
12
-8
15
-3
10
12
1
16
-1
8
12
4
-15
0
-5
17
-17
-3
4
-13
-18
14
12
-6
-5
-13
-4
4
13
-3
2
-5
12
16
15
-12
11
3
-6
13
-11
13
4
-15
-14
17
13
-14
6
6
-17
5
-4
9
5
-13
5
11
8
-14
14
-3
6
-7
8
9
-10
-14
-9
17
17
-6
-18
3
-2
