FC
FD
06
00
07
0B
18
13
22
0F
17
12
EB
F4
06
0A
20
19
1A
1A
25
0F
06
03
03
EC
02
11
F8
DD
E9
18
F3
0A
0A
FF
09
F4
28
33
16
F9
FC
FC
F1
07
E8
0C
FD
FD
19
BC
12
E2
05
22
0B
3E
EB
14
22
0E
22
DF
00
FE
FB
0D
00
FC
E3
ED
00
46
3A
E1
00
F4
CF
10
0C
04
11
00
0D
00
1B
00
F9
0E
0D
00
00
04
ED
00
00
16
E4
EC
00
0F
1F
23
00
0F
06
FC
00
E8
FD
01
F1
F0
0D
CD
ED
09
08
EE
0E
0E
15
1C
F5
F8
FC
EF
F8
02
19
00
05
E7
EE
00
FB
7F
0D
00
01
F5
F0
00
CA
0D
02
0D
03
F2
2F
06
EC
14
F7
F7
40
FA
E6
1F
00
00
00
00
00
00
00
00
00
00
00
00
00
00
00
00
00
00
00
00
00
00
00
00
00
00
00
00
00
00
00
00
00
00
00
00
00
00
00
00
00
00
00
00
00
00
00
00
00
00
00
00
00
00
00
00
00
00
00
00
00
00
00
00
00
00
00
00
00
00
00
00
00
00
00
00
00
00
00
00
00
00
00
00
00
00
00
00
00
00
00
00
00
00
00
00
