34
-25
56
38
-44
45
-53
-56
-37
69
-9
-16
10
28
39
35
-43
-54
-65
-43
-3
9
39
72
26
61
13
71
48
38
62
-4
-3
-3
76
-53
24
77
12
36
44
-56
-54
-34
54
85
-20
39
-18
72
-63
19
3
35
63
73
82
-38
16
-15
23
20
-75
-58
-6
-15
-9
127
-6
-33
-32
86
-11
11
15
105
-18
53
51
28
90
-39
-50
-9
-3
91
49
-3
58
11
-55
-8
-14
0
-9
-7
-15
-103
-9
-33
-22
59
24
33
-10
50
-75
-33
-12
-64
65
54
79
-15
-8
106
2
110
51
-26
85
77
-31
43
49
30
35
94
83
47
-24
-19
-46
-14
-4
-32
-7
-19
120
-3
70
-51
26
-18
20
-47
38
-93
0
74
-22
19
-82
58
37
-27
38
-8
-2
51
-4
-6
23
14
-14
-11
17
3
8
16
-1
-4
-7
-1
-12
15
-13
4
2
-14
0
-7
-3
-17
9
-18
-9
12
-2
-31
31
-5
4
-10
-38
2
-4
15
-7
1
19
-11
-23
14
-3
46
32
-3
-10
15
-4
-1
-4
20
-9
16
-4
6
9
-11
15
-6
25
-15
-9
-10
-15
-16
21
8
13
14
1
8
7
-5
27
-2
-29
3
-14
-20
-10
-12
-6
-13
9
1
5
-14
3
-11
0
1
8
6
